{
  "version": "1.0",
  "truncation": null,
  "padding": null,
  "added_tokens": [
    {
      "id": 0,
      "content": "[UNK]",
      "single_word": false,
      "lstrip": false,
      "rstrip": false,
      "normalized": false,
      "special": true
    },
    {
      "id": 1,
      "content": "[CLS]",
      "single_word": false,
      "lstrip": false,
      "rstrip": false,
      "normalized": false,
      "special": true
    },
    {
      "id": 2,
      "content": "[SEP]",
      "single_word": false,
      "lstrip": false,
      "rstrip": false,
      "normalized": false,
      "special": true
    },
    {
      "id": 3,
      "content": "[PAD]",
      "single_word": false,
      "lstrip": false,
      "rstrip": false,
      "normalized": false,
      "special": true
    },
    {
      "id": 4,
      "content": "[MASK]",
      "single_word": false,
      "lstrip": false,
      "rstrip": false,
      "normalized": false,
      "special": true
    }
  ],
  "normalizer": null,
  "pre_tokenizer": {
    "type": "Whitespace"
  },
  "post_processor": null,
  "decoder": null,
  "model": {
    "type": "BPE",
    "dropout": null,
    "unk_token": "[UNK]",
    "continuing_subword_prefix": null,
    "end_of_word_suffix": null,
    "fuse_unk": false,
    "byte_fallback": false,
    "ignore_merges": false,
    "vocab": {
      "[UNK]": 0,
      "[CLS]": 1,
      "[SEP]": 2,
      "[PAD]": 3,
      "[MASK]": 4,
      "\u0001": 5,
      "\u0005": 6,
      "\u0006": 7,
      "\u0007": 8,
      "\u000f": 9,
      "\u0010": 10,
      "\u0011": 11,
      "\u0012": 12,
      "\u0013": 13,
      "\u0014": 14,
      "\u0015": 15,
      "\u0016": 16,
      "\u0017": 17,
      "\u0019": 18,
      "\u001b": 19,
      "!": 20,
      "\"": 21,
      "#": 22,
      "$": 23,
      "%": 24,
      "&": 25,
      "'": 26,
      "(": 27,
      ")": 28,
      "*": 29,
      "+": 30,
      ",": 31,
      "-": 32,
      ".": 33,
      "/": 34,
      "0": 35,
      "1": 36,
      "2": 37,
      "3": 38,
      "4": 39,
      "5": 40,
      "6": 41,
      "7": 42,
      "8": 43,
      "9": 44,
      ":": 45,
      ";": 46,
      "<": 47,
      "=": 48,
      ">": 49,
      "?": 50,
      "@": 51,
      "A": 52,
      "B": 53,
      "C": 54,
      "D": 55,
      "E": 56,
      "F": 57,
      "G": 58,
      "H": 59,
      "I": 60,
      "J": 61,
      "K": 62,
      "L": 63,
      "M": 64,
      "N": 65,
      "O": 66,
      "P": 67,
      "Q": 68,
      "R": 69,
      "S": 70,
      "T": 71,
      "U": 72,
      "V": 73,
      "W": 74,
      "X": 75,
      "Y": 76,
      "Z": 77,
      "[": 78,
      "\\": 79,
      "]": 80,
      "^": 81,
      "_": 82,
      "`": 83,
      "a": 84,
      "b": 85,
      "c": 86,
      "d": 87,
      "e": 88,
      "f": 89,
      "g": 90,
      "h": 91,
      "i": 92,
      "j": 93,
      "k": 94,
      "l": 95,
      "m": 96,
      "n": 97,
      "o": 98,
      "p": 99,
      "q": 100,
      "r": 101,
      "s": 102,
      "t": 103,
      "u": 104,
      "v": 105,
      "w": 106,
      "x": 107,
      "y": 108,
      "z": 109,
      "{": 110,
      "|": 111,
      "}": 112,
      "~": 113,
      "": 114,
      "": 115,
      "": 116,
      "": 117,
      "": 118,
      "": 119,
      "": 120,
      "": 121,
      "": 122,
      "": 123,
      "": 124,
      "": 125,
      "": 126,
      "": 127,
      "": 128,
      "": 129,
      "": 130,
      "": 131,
      "": 132,
      "": 133,
      "": 134,
      "": 135,
      "": 136,
      "": 137,
      "": 138,
      "": 139,
      "": 140,
      "": 141,
      "": 142,
      "": 143,
      "": 144,
      "¡": 145,
      "¢": 146,
      "£": 147,
      "¤": 148,
      "¥": 149,
      "¦": 150,
      "§": 151,
      "¨": 152,
      "©": 153,
      "ª": 154,
      "«": 155,
      "¬": 156,
      "­": 157,
      "®": 158,
      "¯": 159,
      "°": 160,
      "±": 161,
      "²": 162,
      "³": 163,
      "´": 164,
      "µ": 165,
      "¶": 166,
      "·": 167,
      "¸": 168,
      "¹": 169,
      "º": 170,
      "»": 171,
      "¼": 172,
      "½": 173,
      "¾": 174,
      "¿": 175,
      "À": 176,
      "×": 177,
      "Ü": 178,
      "Ý": 179,
      "Þ": 180,
      "ß": 181,
      "à": 182,
      "á": 183,
      "â": 184,
      "ã": 185,
      "ä": 186,
      "å": 187,
      "æ": 188,
      "ç": 189,
      "è": 190,
      "é": 191,
      "ê": 192,
      "ë": 193,
      "ì": 194,
      "í": 195,
      "î": 196,
      "ï": 197,
      "ð": 198,
      "ñ": 199,
      "ò": 200,
      "ó": 201,
      "ô": 202,
      "õ": 203,
      "ö": 204,
      "÷": 205,
      "ø": 206,
      "ù": 207,
      "ú": 208,
      "û": 209,
      "ü": 210,
      "ý": 211,
      "þ": 212,
      "ÿ": 213,
      "ć": 214,
      "č": 215,
      "ğ": 216,
      "ī": 217,
      "ł": 218,
      "ś": 219,
      "ż": 220,
      "͏": 221,
      "ͨ": 222,
      "θ": 223,
      "а": 224,
      "в": 225,
      "д": 226,
      "е": 227,
      "ж": 228,
      "з": 229,
      "и": 230,
      "к": 231,
      "л": 232,
      "м": 233,
      "н": 234,
      "о": 235,
      "п": 236,
      "р": 237,
      "с": 238,
      "т": 239,
      "у": 240,
      "ц": 241,
      "ч": 242,
      "ш": 243,
      "ь": 244,
      "э": 245,
      "я": 246,
      "ё": 247,
      "ѕ": 248,
      "ӿ": 249,
      "א": 250,
      "ו": 251,
      "ח": 252,
      "י": 253,
      "ל": 254,
      "ם": 255,
      "מ": 256,
      "ש": 257,
      "ث": 258,
      "ڶ": 259,
      "ಗ": 260,
      "ದ": 261,
      "ಧ": 262,
      "ನ": 263,
      "ಯ": 264,
      "ಳ": 265,
      "ವ": 266,
      "ಹ": 267,
      "ಾ": 268,
      "ು": 269,
      "್": 270,
      "‎": 271,
      "–": 272,
      "—": 273,
      "‘": 274,
      "’": 275,
      "“": 276,
      "”": 277,
      "‡": 278,
      "•": 279,
      "…": 280,
      "€": 281,
      "™": 282,
      "⌂": 283,
      "♣": 284,
      "ㄞ": 285,
      "ㄢ": 286,
      "俊": 287,
      "写": 288,
      "小": 289,
      "我": 290,
      "李": 291,
      "杰": 292,
      "楊": 293,
      "道": 294,
      "�": 295,
      "🏻": 296,
      "👩": 297,
      "💚": 298,
      "💻": 299,
      "🙃": 300,
      "er": 301,
      "es": 302,
      "en": 303,
      "ca": 304,
      "th": 305,
      "in": 306,
      "cap": 307,
      "escap": 308,
      "mb": 309,
      "mber": 310,
      "on": 311,
      "umber": 312,
      "enumber": 313,
      "escapenumber": 314,
      "an": 315,
      "or": 316,
      "at": 317,
      "re": 318,
      "ou": 319,
      "the": 320,
      "is": 321,
      "to": 322,
      "ed": 323,
      "al": 324,
      "ar": 325,
      "el": 326,
      "ing": 327,
      "it": 328,
      "st": 329,
      "il": 330,
      "ro": 331,
      "as": 332,
      "and": 333,
      "of": 334,
      "ch": 335,
      "ion": 336,
      "le": 337,
      "co": 338,
      "ct": 339,
      "ent": 340,
      "you": 341,
      "de": 342,
      "for": 343,
      "ic": 344,
      "ma": 345,
      "me": 346,
      "se": 347,
      "lo": 348,
      "be": 349,
      "ve": 350,
      "ad": 351,
      "ong": 352,
      "no": 353,
      "com": 354,
      "un": 355,
      "pro": 356,
      "elong": 357,
      "escapelong": 358,
      "ce": 359,
      "ri": 360,
      "ht": 361,
      "ne": 362,
      "us": 363,
      "su": 364,
      "ge": 365,
      "ly": 366,
      "id": 367,
      "con": 368,
      "li": 369,
      "ay": 370,
      "ver": 371,
      "ter": 372,
      "am": 373,
      "wh": 374,
      "we": 375,
      "ill": 376,
      "po": 377,
      "wi": 378,
      "ut": 379,
      "est": 380,
      "ess": 381,
      "ur": 382,
      "ab": 383,
      "do": 384,
      "that": 385,
      "so": 386,
      "ect": 387,
      "ac": 388,
      "if": 389,
      "ig": 390,
      "this": 391,
      "sh": 392,
      "ke": 393,
      "ment": 394,
      "with": 395,
      "per": 396,
      "tr": 397,
      "ld": 398,
      "ation": 399,
      "ex": 400,
      "are": 401,
      "our": 402,
      "ta": 403,
      "ul": 404,
      "pr": 405,
      "im": 406,
      "sa": 407,
      "ir": 408,
      "your": 409,
      "ha": 410,
      "pe": 411,
      "ate": 412,
      "ist": 413,
      "qu": 414,
      "ther": 415,
      "tp": 416,
      "mo": 417,
      "te": 418,
      "ple": 419,
      "all": 420,
      "00": 421,
      "rom": 422,
      "ho": 423,
      "http": 424,
      "not": 425,
      "can": 426,
      "mail": 427,
      "from": 428,
      "pl": 429,
      "one": 430,
      "have": 431,
      "any": 432,
      "he": 433,
      "ag": 434,
      "out": 435,
      "ap": 436,
      "vi": 437,
      "ww": 438,
      "wor": 439,
      "by": 440,
      "cl": 441,
      "go": 442,
      "ers": 443,
      "art": 444,
      "oun": 445,
      "ice": 446,
      "ity": 447,
      "ci": 448,
      "ould": 449,
      "end": 450,
      "day": 451,
      "du": 452,
      "will": 453,
      "ort": 454,
      "new": 455,
      "em": 456,
      "man": 457,
      "gr": 458,
      "ere": 459,
      "up": 460,
      "di": 461,
      "ti": 462,
      "ase": 463,
      "br": 464,
      "ine": 465,
      "ol": 466,
      "ard": 467,
      "op": 468,
      "cal": 469,
      "ks": 470,
      "act": 471,
      "res": 472,
      "ions": 473,
      "ive": 474,
      "bo": 475,
      "but": 476,
      "ore": 477,
      "age": 478,
      "ant": 479,
      "list": 480,
      "comp": 481,
      "now": 482,
      "str": 483,
      "port": 484,
      "et": 485,
      "ron": 486,
      "sub": 487,
      "my": 488,
      "org": 489,
      "int": 490,
      "able": 491,
      "was": 492,
      "low": 493,
      "si": 494,
      "hel": 495,
      "der": 496,
      "fer": 497,
      "ies": 498,
      "gu": 499,
      "fe": 500,
      "ject": 501,
      "mar": 502,
      "get": 503,
      "more": 504,
      "ble": 505,
      "stat": 506,
      "ack": 507,
      "ck": 508,
      "dr": 509,
      "use": 510,
      "ok": 511,
      "ser": 512,
      "form": 513,
      "inter": 514,
      "ell": 515,
      "cre": 516,
      "enron": 517,
      "bu": 518,
      "fo": 519,
      "av": 520,
      "ure": 521,
      "than": 522,
      "ite": 523,
      "iv": 524,
      "ph": 525,
      "ile": 526,
      "pa": 527,
      "ts": 528,
      "has": 529,
      "cat": 530,
      "ght": 531,
      "la": 532,
      "um": 533,
      "fa": 534,
      "pre": 535,
      "may": 536,
      "ear": 537,
      "help": 538,
      "some": 539,
      "dis": 540,
      "min": 541,
      "fin": 542,
      "spe": 543,
      "www": 544,
      "ree": 545,
      "af": 546,
      "comm": 547,
      "please": 548,
      "pt": 549,
      "ust": 550,
      "produ": 551,
      "cor": 552,
      "od": 553,
      "ick": 554,
      "ich": 555,
      "cur": 556,
      "read": 557,
      "ev": 558,
      "dat": 559,
      "par": 560,
      "ra": 561,
      "ow": 562,
      "work": 563,
      "ip": 564,
      "time": 565,
      "very": 566,
      "reg": 567,
      "off": 568,
      "mba": 569,
      "na": 570,
      "part": 571,
      "net": 572,
      "sc": 573,
      "sel": 574,
      "ass": 575,
      "200": 576,
      "samba": 577,
      "ans": 578,
      "ction": 579,
      "ous": 580,
      "would": 581,
      "au": 582,
      "pos": 583,
      "val": 584,
      "ight": 585,
      "there": 586,
      "what": 587,
      "sy": 588,
      "ue": 589,
      "tain": 590,
      "ia": 591,
      "ign": 592,
      "its": 593,
      "coun": 594,
      "ef": 595,
      "mon": 596,
      "ence": 597,
      "\\\\": 598,
      "ally": 599,
      "other": 600,
      "ll": 601,
      "cess": 602,
      "ener": 603,
      "ty": 604,
      "cus": 605,
      "ments": 606,
      "tw": 607,
      "post": 608,
      "here": 609,
      "cont": 610,
      "news": 611,
      "way": 612,
      "only": 613,
      "pill": 614,
      "jo": 615,
      "vis": 616,
      "del": 617,
      "bus": 618,
      "about": 619,
      "chan": 620,
      "sp": 621,
      "sour": 622,
      "thing": 623,
      "ary": 624,
      "des": 625,
      "line": 626,
      "lin": 627,
      "gh": 628,
      "which": 629,
      "log": 630,
      "ches": 631,
      "db": 632,
      "know": 633,
      "hou": 634,
      "ely": 635,
      "need": 636,
      "they": 637,
      "ain": 638,
      "ide": 639,
      "iz": 640,
      "ition": 641,
      "med": 642,
      "ial": 643,
      "ound": 644,
      "ail": 645,
      "ful": 646,
      "ew": 647,
      "mess": 648,
      "win": 649,
      "ian": 650,
      "source": 651,
      "dow": 652,
      "pres": 653,
      "che": 654,
      "ated": 655,
      "like": 656,
      "inv": 657,
      "ms": 658,
      "bs": 659,
      "serv": 660,
      "ml": 661,
      "company": 662,
      "ish": 663,
      "email": 664,
      "tur": 665,
      "fun": 666,
      "over": 667,
      "see": 668,
      "scri": 669,
      "file": 670,
      "ance": 671,
      "ak": 672,
      "ory": 673,
      "set": 674,
      "mer": 675,
      "data": 676,
      "top": 677,
      "ie": 678,
      "ting": 679,
      "look": 680,
      "cent": 681,
      "mat": 682,
      "ough": 683,
      "ens": 684,
      "self": 685,
      "just": 686,
      "bl": 687,
      "don": 688,
      "wer": 689,
      "right": 690,
      "price": 691,
      "ach": 692,
      "pm": 693,
      "pri": 694,
      "son": 695,
      "pills": 696,
      "cr": 697,
      "cial": 698,
      "ifi": 699,
      "ds": 700,
      "ward": 701,
      "vers": 702,
      "pp": 703,
      "who": 704,
      "vide": 705,
      "ire": 706,
      "inform": 707,
      "fir": 708,
      "view": 709,
      "info": 710,
      "test": 711,
      "wat": 712,
      "his": 713,
      "add": 714,
      "been": 715,
      "turn": 716,
      "ical": 717,
      "mg": 718,
      "vel": 719,
      "clu": 720,
      "html": 721,
      "how": 722,
      "ob": 723,
      "her": 724,
      "exp": 725,
      "iness": 726,
      "when": 727,
      "said": 728,
      "eth": 729,
      "requ": 730,
      "cer": 731,
      "try": 732,
      "bran": 733,
      "let": 734,
      "sid": 735,
      "message": 736,
      "sof": 737,
      "name": 738,
      "car": 739,
      "their": 740,
      "call": 741,
      "ise": 742,
      "wr": 743,
      "tri": 744,
      "product": 745,
      "ices": 746,
      "ese": 747,
      "ning": 748,
      "tal": 749,
      "ext": 750,
      "om": 751,
      "ors": 752,
      "code": 753,
      "also": 754,
      "fore": 755,
      "cy": 756,
      "subscri": 757,
      "business": 758,
      "ste": 759,
      "escapenumberd": 760,
      "escapenumbermg": 761,
      "ethz": 762,
      "col": 763,
      "mi": 764,
      "want": 765,
      "information": 766,
      "rece": 767,
      "row": 768,
      "state": 769,
      "year": 770,
      "free": 771,
      "subject": 772,
      "should": 773,
      "item": 774,
      "inclu": 775,
      "ations": 776,
      "rect": 777,
      "conf": 778,
      "make": 779,
      "guide": 780,
      "could": 781,
      "err": 782,
      "had": 783,
      "king": 784,
      "gy": 785,
      "bel": 786,
      "ps": 787,
      "ze": 788,
      "ces": 789,
      "gre": 790,
      "marke": 791,
      "into": 792,
      "back": 793,
      "branches": 794,
      "under": 795,
      "posting": 796,
      "ug": 797,
      "mailing": 798,
      "dy": 799,
      "ding": 800,
      "stem": 801,
      "char": 802,
      "fi": 803,
      "project": 804,
      "tail": 805,
      "ince": 806,
      "ot": 807,
      "cc": 808,
      "pu": 809,
      "ult": 810,
      "cation": 811,
      "stru": 812,
      "os": 813,
      "sch": 814,
      "thanks": 815,
      "these": 816,
      "ber": 817,
      "rev": 818,
      "after": 819,
      "sol": 820,
      "ident": 821,
      "power": 822,
      "them": 823,
      "then": 824,
      "most": 825,
      "mis": 826,
      "report": 827,
      "ities": 828,
      "fol": 829,
      "wee": 830,
      "py": 831,
      "custo": 832,
      "system": 833,
      "ved": 834,
      "return": 835,
      "pat": 836,
      "fri": 837,
      "invest": 838,
      "hig": 839,
      "uni": 840,
      "cn": 841,
      "ss": 842,
      "ton": 843,
      "world": 844,
      "fl": 845,
      "gener": 846,
      "she": 847,
      "ual": 848,
      "gram": 849,
      "10": 850,
      "bas": 851,
      "save": 852,
      "alth": 853,
      "does": 854,
      "ents": 855,
      "lib": 856,
      "come": 857,
      "aescapenumber": 858,
      "ry": 859,
      "follow": 860,
      "every": 861,
      "contain": 862,
      "provide": 863,
      "resp": 864,
      "date": 865,
      "were": 866,
      "mu": 867,
      "ace": 868,
      "ank": 869,
      "main": 870,
      "tact": 871,
      "deal": 872,
      "fil": 873,
      "direct": 874,
      "where": 875,
      "ative": 876,
      "lot": 877,
      "thr": 878,
      "bet": 879,
      "pay": 880,
      "sim": 881,
      "first": 882,
      "ris": 883,
      "perl": 884,
      "gin": 885,
      "peo": 886,
      "grou": 887,
      "ating": 888,
      "app": 889,
      "high": 890,
      "ger": 891,
      "count": 892,
      "struct": 893,
      "people": 894,
      "cause": 895,
      "contact": 896,
      "ner": 897,
      "thin": 898,
      "var": 899,
      "subscribe": 900,
      "curr": 901,
      "key": 902,
      "ash": 903,
      "oney": 904,
      "oper": 905,
      "best": 906,
      "bin": 907,
      "wro": 908,
      "number": 909,
      "click": 910,
      "sto": 911,
      "vid": 912,
      "trans": 913,
      "wrote": 914,
      "fact": 915,
      "say": 916,
      "dif": 917,
      "mailman": 918,
      "did": 919,
      "down": 920,
      "stand": 921,
      "mit": 922,
      "eff": 923,
      "xt": 924,
      "cnn": 925,
      "lit": 926,
      "ics": 927,
      "io": 928,
      "jun": 929,
      "sl": 930,
      "prof": 931,
      "well": 932,
      "tim": 933,
      "ast": 934,
      "cle": 935,
      "ced": 936,
      "inst": 937,
      "forward": 938,
      "eng": 939,
      "bro": 940,
      "ility": 941,
      "money": 942,
      "sign": 943,
      "start": 944,
      "devel": 945,
      "gas": 946,
      "sure": 947,
      "qual": 948,
      "program": 949,
      "tech": 950,
      "offer": 951,
      "lic": 952,
      "using": 953,
      "two": 954,
      "show": 955,
      "ose": 956,
      "listinfo": 957,
      "mod": 958,
      "even": 959,
      "ified": 960,
      "order": 961,
      "head": 962,
      "rel": 963,
      "ges": 964,
      "through": 965,
      "current": 966,
      "corp": 967,
      "secur": 968,
      "sup": 969,
      "unsubscribe": 970,
      "ann": 971,
      "energy": 972,
      "aw": 973,
      "ado": 974,
      "nor": 975,
      "sk": 976,
      "avail": 977,
      "cu": 978,
      "ep": 979,
      "sur": 980,
      "service": 981,
      "long": 982,
      "take": 983,
      "last": 984,
      "good": 985,
      "stu": 986,
      "ull": 987,
      "health": 988,
      "week": 989,
      "fr": 990,
      "sum": 991,
      "ving": 992,
      "inc": 993,
      "clo": 994,
      "ates": 995,
      "buil": 996,
      "war": 997,
      "att": 998,
      "vo": 999,
      "ession": 1000,
      "ship": 1001,
      "month": 1002,
      "deb": 1003,
      "web": 1004,
      "sent": 1005,
      "because": 1006,
      "many": 1007,
      "math": 1008,
      "2001": 1009,
      "appro": 1010,
      "hand": 1011,
      "red": 1012,
      "cs": 1013,
      "much": 1014,
      "cli": 1015,
      "proble": 1016,
      "change": 1017,
      "member": 1018,
      "check": 1019,
      "atur": 1020,
      "comment": 1021,
      "tra": 1022,
      "respon": 1023,
      "type": 1024,
      "sun": 1025,
      "such": 1026,
      "gi": 1027,
      "home": 1028,
      "les": 1029,
      "2000": 1030,
      "pi": 1031,
      "eri": 1032,
      "size": 1033,
      "regard": 1034,
      "watch": 1035,
      "run": 1036,
      "nation": 1037,
      "rep": 1038,
      "used": 1039,
      "quest": 1040,
      "send": 1041,
      "tu": 1042,
      "hi": 1043,
      "dress": 1044,
      "drug": 1045,
      "think": 1046,
      "find": 1047,
      "buy": 1048,
      "great": 1049,
      "ff": 1050,
      "da": 1051,
      "ga": 1052,
      "pur": 1053,
      "cations": 1054,
      "status": 1055,
      "pack": 1056,
      "available": 1057,
      "12": 1058,
      "comple": 1059,
      "mill": 1060,
      "group": 1061,
      "mp": 1062,
      "point": 1063,
      "person": 1064,
      "priv": 1065,
      "error": 1066,
      "phar": 1067,
      "function": 1068,
      "market": 1069,
      "process": 1070,
      "less": 1071,
      "opt": 1072,
      "online": 1073,
      "adv": 1074,
      "canad": 1075,
      "real": 1076,
      "develop": 1077,
      "arch": 1078,
      "open": 1079,
      "before": 1080,
      "ju": 1081,
      "speak": 1082,
      "ames": 1083,
      "place": 1084,
      "lar": 1085,
      "today": 1086,
      "miss": 1087,
      "lat": 1088,
      "interest": 1089,
      "version": 1090,
      "address": 1091,
      "softw": 1092,
      "inde": 1093,
      "begin": 1094,
      "ten": 1095,
      "again": 1096,
      "next": 1097,
      "contained": 1098,
      "wo": 1099,
      "tdb": 1100,
      "pharma": 1101,
      "orig": 1102,
      "indi": 1103,
      "descapenumber": 1104,
      "issu": 1105,
      "nt": 1106,
      "minim": 1107,
      "pass": 1108,
      "sm": 1109,
      "copy": 1110,
      "sug": 1111,
      "11": 1112,
      "ker": 1113,
      "ited": 1114,
      "put": 1115,
      "publ": 1116,
      "adobe": 1117,
      "loc": 1118,
      "tern": 1119,
      "products": 1120,
      "present": 1121,
      "apr": 1122,
      "medi": 1123,
      "pc": 1124,
      "soft": 1125,
      "load": 1126,
      "ctdb": 1127,
      "stor": 1128,
      "ready": 1129,
      "bal": 1130,
      "software": 1131,
      "cho": 1132,
      "origin": 1133,
      "000": 1134,
      "rele": 1135,
      "support": 1136,
      "include": 1137,
      "ages": 1138,
      "mor": 1139,
      "ben": 1140,
      "wa": 1141,
      "ameri": 1142,
      "tract": 1143,
      "dist": 1144,
      "each": 1145,
      "cour": 1146,
      "ily": 1147,
      "play": 1148,
      "being": 1149,
      "press": 1150,
      "webs": 1151,
      "request": 1152,
      "him": 1153,
      "leg": 1154,
      "dit": 1155,
      "land": 1156,
      "xx": 1157,
      "possi": 1158,
      "trad": 1159,
      "expect": 1160,
      "provid": 1161,
      "meet": 1162,
      "auth": 1163,
      "receiv": 1164,
      "peri": 1165,
      "custom": 1166,
      "full": 1167,
      "reprodu": 1168,
      "dec": 1169,
      "following": 1170,
      "window": 1171,
      "sal": 1172,
      "ang": 1173,
      "retail": 1174,
      "differ": 1175,
      "ted": 1176,
      "ners": 1177,
      "quality": 1178,
      "https": 1179,
      "ask": 1180,
      "made": 1181,
      "site": 1182,
      "bre": 1183,
      "bill": 1184,
      "special": 1185,
      "esday": 1186,
      "manage": 1187,
      "ular": 1188,
      "que": 1189,
      "cuss": 1190,
      "value": 1191,
      "cible": 1192,
      "minimal": 1193,
      "while": 1194,
      "commented": 1195,
      "smb": 1196,
      "ny": 1197,
      "same": 1198,
      "discuss": 1199,
      "print": 1200,
      "01": 1201,
      "giv": 1202,
      "those": 1203,
      "visit": 1204,
      "reproducible": 1205,
      "ters": 1206,
      "happ": 1207,
      "national": 1208,
      "ings": 1209,
      "without": 1210,
      "found": 1211,
      "edu": 1212,
      "appli": 1213,
      "enter": 1214,
      "hour": 1215,
      "tle": 1216,
      "remo": 1217,
      "looking": 1218,
      "bar": 1219,
      "ital": 1220,
      "cut": 1221,
      "vince": 1222,
      "vir": 1223,
      "too": 1224,
      "mr": 1225,
      "exam": 1226,
      "tel": 1227,
      "cri": 1228,
      "security": 1229,
      "ense": 1230,
      "cept": 1231,
      "addition": 1232,
      "ken": 1233,
      "deli": 1234,
      "class": 1235,
      "office": 1236,
      "hard": 1237,
      "yes": 1238,
      "since": 1239,
      "cover": 1240,
      "receive": 1241,
      "life": 1242,
      "side": 1243,
      "20": 1244,
      "mic": 1245,
      "require": 1246,
      "cla": 1247,
      "led": 1248,
      "bank": 1249,
      "original": 1250,
      "ster": 1251,
      "ven": 1252,
      "user": 1253,
      "ged": 1254,
      "kin": 1255,
      "cescapenumber": 1256,
      "fut": 1257,
      "network": 1258,
      "30": 1259,
      "hn": 1260,
      "tran": 1261,
      "years": 1262,
      "ft": 1263,
      "ribut": 1264,
      "services": 1265,
      "tar": 1266,
      "air": 1267,
      "based": 1268,
      "vari": 1269,
      "own": 1270,
      "ves": 1271,
      "lock": 1272,
      "19": 1273,
      "gl": 1274,
      "config": 1275,
      "incre": 1276,
      "den": 1277,
      "ways": 1278,
      "manag": 1279,
      "ys": 1280,
      "writ": 1281,
      "ima": 1282,
      "eas": 1283,
      "ux": 1284,
      "account": 1285,
      "15": 1286,
      "dear": 1287,
      "gest": 1288,
      "access": 1289,
      "still": 1290,
      "might": 1291,
      "¡¢": 1292,
      "loo": 1293,
      "windows": 1294,
      "indu": 1295,
      "wed": 1296,
      "contin": 1297,
      "within": 1298,
      "prices": 1299,
      "13": 1300,
      "problem": 1301,
      "gen": 1302,
      "ought": 1303,
      "gn": 1304,
      "techno": 1305,
      "case": 1306,
      "icle": 1307,
      "solut": 1308,
      "install": 1309,
      "really": 1310,
      "wea": 1311,
      "plan": 1312,
      "modified": 1313,
      "model": 1314,
      "arr": 1315,
      "def": 1316,
      "hold": 1317,
      "far": 1318,
      "future": 1319,
      "give": 1320,
      "canadian": 1321,
      "hu": 1322,
      "speakup": 1323,
      "customers": 1324,
      "story": 1325,
      "detail": 1326,
      "effect": 1327,
      "ley": 1328,
      "why": 1329,
      "cost": 1330,
      "build": 1331,
      "null": 1332,
      "link": 1333,
      "works": 1334,
      "ctions": 1335,
      "logy": 1336,
      "fix": 1337,
      "spec": 1338,
      "old": 1339,
      "dot": 1340,
      "plo": 1341,
      "care": 1342,
      "object": 1343,
      "phone": 1344,
      "kes": 1345,
      "million": 1346,
      "ason": 1347,
      "und": 1348,
      "going": 1349,
      "fail": 1350,
      "auto": 1351,
      "big": 1352,
      "rim": 1353,
      "ference": 1354,
      "both": 1355,
      "elect": 1356,
      "sell": 1357,
      "men": 1358,
      "better": 1359,
      "regis": 1360,
      "valu": 1361,
      "rot": 1362,
      "mac": 1363,
      "position": 1364,
      "pet": 1365,
      "contro": 1366,
      "vn": 1367,
      "word": 1368,
      "mal": 1369,
      "lead": 1370,
      "const": 1371,
      "earch": 1372,
      "anat": 1373,
      "debian": 1374,
      "dri": 1375,
      "shop": 1376,
      "agree": 1377,
      "vol": 1378,
      "something": 1379,
      "ands": 1380,
      "stock": 1381,
      "public": 1382,
      "ars": 1383,
      "light": 1384,
      "slash": 1385,
      "compan": 1386,
      "glo": 1387,
      "lear": 1388,
      "cond": 1389,
      "ator": 1390,
      "tre": 1391,
      "possible": 1392,
      "50": 1393,
      "meth": 1394,
      "pend": 1395,
      "pharmacy": 1396,
      "ket": 1397,
      "bit": 1398,
      "sit": 1399,
      "share": 1400,
      "vision": 1401,
      "ched": 1402,
      "pot": 1403,
      "face": 1404,
      "pan": 1405,
      "got": 1406,
      "anatrim": 1407,
      "partic": 1408,
      "suc": 1409,
      "anal": 1410,
      "term": 1411,
      "ately": 1412,
      "claim": 1413,
      "transa": 1414,
      "mem": 1415,
      "law": 1416,
      "research": 1417,
      "eu": 1418,
      "fs": 1419,
      "ased": 1420,
      "result": 1421,
      "ize": 1422,
      "friend": 1423,
      "ify": 1424,
      "slashdot": 1425,
      "sider": 1426,
      "utc": 1427,
      "thank": 1428,
      "activ": 1429,
      "john": 1430,
      "june": 1431,
      "team": 1432,
      "mark": 1433,
      "resul": 1434,
      "common": 1435,
      "bug": 1436,
      "har": 1437,
      "article": 1438,
      "allow": 1439,
      "acy": 1440,
      "must": 1441,
      "cas": 1442,
      "below": 1443,
      "finan": 1444,
      "atta": 1445,
      "stri": 1446,
      "ii": 1447,
      "soci": 1448,
      "ici": 1449,
      "urs": 1450,
      "bescapenumber": 1451,
      "president": 1452,
      "vert": 1453,
      "fam": 1454,
      "shar": 1455,
      "risk": 1456,
      "book": 1457,
      "index": 1458,
      "text": 1459,
      "purch": 1460,
      "micro": 1461,
      "feel": 1462,
      "companies": 1463,
      "talloc": 1464,
      "uk": 1465,
      "water": 1466,
      "customer": 1467,
      "cast": 1468,
      "ature": 1469,
      "bb": 1470,
      "ston": 1471,
      "ream": 1472,
      "regards": 1473,
      "num": 1474,
      "profession": 1475,
      "dev": 1476,
      "days": 1477,
      "path": 1478,
      "ye": 1479,
      "ually": 1480,
      "seem": 1481,
      "mean": 1482,
      "stop": 1483,
      "lan": 1484,
      "level": 1485,
      "method": 1486,
      "aler": 1487,
      "internet": 1488,
      "won": 1489,
      "review": 1490,
      "grow": 1491,
      "ability": 1492,
      "ref": 1493,
      "ctor": 1494,
      "local": 1495,
      "statements": 1496,
      "cgi": 1497,
      "investment": 1498,
      "import": 1499,
      "keep": 1500,
      "offic": 1501,
      "ping": 1502,
      "reser": 1503,
      "itch": 1504,
      "tt": 1505,
      "ctx": 1506,
      "times": 1507,
      "sing": 1508,
      "rid": 1509,
      "sam": 1510,
      "aph": 1511,
      "ential": 1512,
      "cbs": 1513,
      "friday": 1514,
      "sr": 1515,
      "len": 1516,
      "ween": 1517,
      "bi": 1518,
      "unity": 1519,
      "fon": 1520,
      "pace": 1521,
      "true": 1522,
      "changes": 1523,
      "questions": 1524,
      "management": 1525,
      "ord": 1526,
      "three": 1527,
      "25": 1528,
      "cing": 1529,
      "already": 1530,
      "hope": 1531,
      "design": 1532,
      "sw": 1533,
      "lists": 1534,
      "certain": 1535,
      "non": 1536,
      "sou": 1537,
      "rest": 1538,
      "night": 1539,
      "µä": 1540,
      "learn": 1541,
      "few": 1542,
      "development": 1543,
      "weather": 1544,
      "hk": 1545,
      "linux": 1546,
      "bur": 1547,
      "bush": 1548,
      "author": 1549,
      "contract": 1550,
      "consider": 1551,
      "unt": 1552,
      "parrot": 1553,
      "ded": 1554,
      "another": 1555,
      "map": 1556,
      "results": 1557,
      "body": 1558,
      "commit": 1559,
      "table": 1560,
      "server": 1561,
      "april": 1562,
      "rights": 1563,
      "drugs": 1564,
      "trade": 1565,
      "sat": 1566,
      "clear": 1567,
      "exe": 1568,
      "als": 1569,
      "ieve": 1570,
      "speed": 1571,
      "organ": 1572,
      "between": 1573,
      "sen": 1574,
      "files": 1575,
      "amin": 1576,
      "string": 1577,
      "escapenumbere": 1578,
      "box": 1579,
      "fur": 1580,
      "mm": 1581,
      "uring": 1582,
      "different": 1583,
      "additional": 1584,
      "docu": 1585,
      "credit": 1586,
      "write": 1587,
      "ath": 1588,
      "proper": 1589,
      "wide": 1590,
      "announ": 1591,
      "howe": 1592,
      "short": 1593,
      "agra": 1594,
      "polit": 1595,
      "sec": 1596,
      "however": 1597,
      "ru": 1598,
      "communi": 1599,
      "center": 1600,
      "va": 1601,
      "cali": 1602,
      "success": 1603,
      "cd": 1604,
      "else": 1605,
      "letter": 1606,
      "private": 1607,
      "video": 1608,
      "never": 1609,
      "suite": 1610,
      "cate": 1611,
      "gover": 1612,
      "abo": 1613,
      "init": 1614,
      "oc": 1615,
      "names": 1616,
      "always": 1617,
      "limit": 1618,
      "monday": 1619,
      "ns": 1620,
      "iss": 1621,
      "lu": 1622,
      "ption": 1623,
      "desk": 1624,
      "quick": 1625,
      "distribut": 1626,
      "lon": 1627,
      "target": 1628,
      "note": 1629,
      "conne": 1630,
      "colle": 1631,
      "example": 1632,
      "wil": 1633,
      "tect": 1634,
      "microsoft": 1635,
      "create": 1636,
      "received": 1637,
      "die": 1638,
      "ric": 1639,
      "ele": 1640,
      "ines": 1641,
      "bed": 1642,
      "join": 1643,
      "dal": 1644,
      "ones": 1645,
      "plot": 1646,
      "mot": 1647,
      "package": 1648,
      "02": 1649,
      "xp": 1650,
      "working": 1651,
      "page": 1652,
      "14": 1653,
      "jan": 1654,
      "ah": 1655,
      "tool": 1656,
      "sci": 1657,
      "san": 1658,
      "fort": 1659,
      "control": 1660,
      "df": 1661,
      "via": 1662,
      "util": 1663,
      "corpor": 1664,
      "hal": 1665,
      "jor": 1666,
      "pho": 1667,
      "xescapenumber": 1668,
      "house": 1669,
      "defin": 1670,
      "around": 1671,
      "done": 1672,
      "pen": 1673,
      "weight": 1674,
      "hot": 1675,
      "appe": 1676,
      "dar": 1677,
      "compu": 1678,
      "wish": 1679,
      "small": 1680,
      "copyright": 1681,
      "escapenumberf": 1682,
      "event": 1683,
      "release": 1684,
      "ng": 1685,
      "ante": 1686,
      "large": 1687,
      "tell": 1688,
      "understand": 1689,
      "thurs": 1690,
      "ski": 1691,
      "firm": 1692,
      "fra": 1693,
      "little": 1694,
      "ging": 1695,
      "american": 1696,
      "says": 1697,
      "nel": 1698,
      "ended": 1699,
      "ized": 1700,
      "ever": 1701,
      "ange": 1702,
      "strong": 1703,
      "guar": 1704,
      "posit": 1705,
      "aff": 1706,
      "natur": 1707,
      "experi": 1708,
      "16": 1709,
      "meeting": 1710,
      "action": 1711,
      "pg": 1712,
      "due": 1713,
      "oo": 1714,
      "graph": 1715,
      "dd": 1716,
      "chil": 1717,
      "expl": 1718,
      "thursday": 1719,
      "ically": 1720,
      "aily": 1721,
      "reason": 1722,
      "fax": 1723,
      "ports": 1724,
      "assist": 1725,
      "vious": 1726,
      "ives": 1727,
      "fac": 1728,
      "search": 1729,
      "ba": 1730,
      "dav": 1731,
      "cv": 1732,
      "once": 1733,
      "kamin": 1734,
      "ork": 1735,
      "sugar": 1736,
      "equ": 1737,
      "24": 1738,
      "advert": 1739,
      "manager": 1740,
      "sin": 1741,
      "kr": 1742,
      "mid": 1743,
      "govern": 1744,
      "west": 1745,
      "ni": 1746,
      "minis": 1747,
      "including": 1748,
      "professional": 1749,
      "ures": 1750,
      "international": 1751,
      "ross": 1752,
      "mich": 1753,
      "emplo": 1754,
      "libr": 1755,
      "technology": 1756,
      "04": 1757,
      "recent": 1758,
      "fully": 1759,
      "ret": 1760,
      "univers": 1761,
      "close": 1762,
      "suggest": 1763,
      "above": 1764,
      "offers": 1765,
      "daily": 1766,
      "reli": 1767,
      "ame": 1768,
      "associ": 1769,
      "trading": 1770,
      "posted": 1771,
      "cell": 1772,
      "viagra": 1773,
      "ina": 1774,
      "opport": 1775,
      "legal": 1776,
      "break": 1777,
      "font": 1778,
      "stry": 1779,
      "rich": 1780,
      "lou": 1781,
      "second": 1782,
      "ules": 1783,
      "early": 1784,
      "ulti": 1785,
      "website": 1786,
      "los": 1787,
      "nia": 1788,
      "17": 1789,
      "terms": 1790,
      "plement": 1791,
      "select": 1792,
      "tic": 1793,
      "given": 1794,
      "industry": 1795,
      "dg": 1796,
      "whe": 1797,
      "mc": 1798,
      "general": 1799,
      "download": 1800,
      "18": 1801,
      "fast": 1802,
      "bab": 1803,
      "tem": 1804,
      "sor": 1805,
      "comments": 1806,
      "benef": 1807,
      "ants": 1808,
      "boo": 1809,
      "kaminski": 1810,
      "root": 1811,
      "cated": 1812,
      "supp": 1813,
      "complete": 1814,
      "xi": 1815,
      "dem": 1816,
      "major": 1817,
      "options": 1818,
      "euro": 1819,
      "total": 1820,
      "03": 1821,
      "mary": 1822,
      "things": 1823,
      "further": 1824,
      "99": 1825,
      "eld": 1826,
      "ney": 1827,
      "personal": 1828,
      "room": 1829,
      "ids": 1830,
      "issue": 1831,
      "global": 1832,
      "lish": 1833,
      "mil": 1834,
      "chi": 1835,
      "minut": 1836,
      "broad": 1837,
      "york": 1838,
      "soon": 1839,
      "dir": 1840,
      "ither": 1841,
      "final": 1842,
      "transfer": 1843,
      "ael": 1844,
      "store": 1845,
      "stories": 1846,
      "anti": 1847,
      "country": 1848,
      "fornia": 1849,
      "ength": 1850,
      "tuesday": 1851,
      "og": 1852,
      "lab": 1853,
      "premi": 1854,
      "photo": 1855,
      "came": 1856,
      "domain": 1857,
      "financial": 1858,
      "cks": 1859,
      "space": 1860,
      "ional": 1861,
      "nesday": 1862,
      "vent": 1863,
      "ared": 1864,
      "until": 1865,
      "thought": 1866,
      "canadianpharmacy": 1867,
      "application": 1868,
      "wednesday": 1869,
      "attached": 1870,
      "lines": 1871,
      "houston": 1872,
      "months": 1873,
      "ped": 1874,
      "computer": 1875,
      "ird": 1876,
      "nal": 1877,
      "iting": 1878,
      "believe": 1879,
      "rate": 1880,
      "job": 1881,
      "doesn": 1882,
      "transaction": 1883,
      "ave": 1884,
      "flag": 1885,
      "advis": 1886,
      "beginners": 1887,
      "details": 1888,
      "california": 1889,
      "ling": 1890,
      "ren": 1891,
      "ai": 1892,
      "reply": 1893,
      "27": 1894,
      "ness": 1895,
      "draw": 1896,
      "ford": 1897,
      "¡¡": 1898,
      "ali": 1899,
      "generic": 1900,
      "immedi": 1901,
      "content": 1902,
      "gs": 1903,
      "question": 1904,
      "left": 1905,
      "cul": 1906,
      "trying": 1907,
      "course": 1908,
      "guarante": 1909,
      "ya": 1910,
      "ences": 1911,
      "max": 1912,
      "sever": 1913,
      "dept": 1914,
      "implement": 1915,
      "deliver": 1916,
      "during": 1917,
      "inte": 1918,
      "lt": 1919,
      "bat": 1920,
      "vescapenumber": 1921,
      "context": 1922,
      "fescapenumber": 1923,
      "move": 1924,
      "sched": 1925,
      "ech": 1926,
      "near": 1927,
      "preci": 1928,
      "ply": 1929,
      "reserved": 1930,
      "impro": 1931,
      "reed": 1932,
      "yourself": 1933,
      "live": 1934,
      "forwarded": 1935,
      "execut": 1936,
      "client": 1937,
      "lp": 1938,
      "dro": 1939,
      "fill": 1940,
      "accept": 1941,
      "hoo": 1942,
      "links": 1943,
      "bon": 1944,
      "05": 1945,
      "ban": 1946,
      "altern": 1947,
      "getting": 1948,
      "fal": 1949,
      "band": 1950,
      "trav": 1951,
      "document": 1952,
      "nothing": 1953,
      "cannot": 1954,
      "morning": 1955,
      "ama": 1956,
      "licens": 1957,
      "waterloo": 1958,
      "pop": 1959,
      "dig": 1960,
      "update": 1961,
      "states": 1962,
      "dream": 1963,
      "government": 1964,
      "recor": 1965,
      "cash": 1966,
      "aq": 1967,
      "dan": 1968,
      "hist": 1969,
      "multi": 1970,
      "mission": 1971,
      "parent": 1972,
      "thous": 1973,
      "necess": 1974,
      "bri": 1975,
      "tex": 1976,
      "currently": 1977,
      "means": 1978,
      "ific": 1979,
      "securities": 1980,
      "media": 1981,
      "agreement": 1982,
      "purchase": 1983,
      "university": 1984,
      "ume": 1985,
      "past": 1986,
      "license": 1987,
      "natural": 1988,
      "bot": 1989,
      "away": 1990,
      "ency": 1991,
      "known": 1992,
      "websvn": 1993,
      "ier": 1994,
      "28": 1995,
      "bli": 1996,
      "exist": 1997,
      "amp": 1998,
      "£¬": 1999,
      "advan": 2000,
      "having": 2001,
      "shares": 2002,
      "nam": 2003,
      "ison": 2004,
      "hello": 2005,
      "buf": 2006,
      "han": 2007,
      "flow": 2008,
      "aille": 2009,
      "panel": 2010,
      "depart": 2011,
      "tests": 2012,
      "invol": 2013,
      "vin": 2014,
      "braille": 2015,
      "setting": 2016,
      "23": 2017,
      "rad": 2018,
      "uwo": 2019,
      "met": 2020,
      "advice": 2021,
      "ls": 2022,
      "wal": 2023,
      "eescapenumber": 2024,
      "ush": 2025,
      "patch": 2026,
      "lik": 2027,
      "26": 2028,
      "debug": 2029,
      "hours": 2030,
      "cou": 2031,
      "revision": 2032,
      "acqu": 2033,
      "scho": 2034,
      "uary": 2035,
      "wes": 2036,
      "ety": 2037,
      "match": 2038,
      "concer": 2039,
      "heim": 2040,
      "uwaterloo": 2041,
      "united": 2042,
      "easy": 2043,
      "doing": 2044,
      "ization": 2045,
      "simple": 2046,
      "though": 2047,
      "role": 2048,
      "related": 2049,
      "ount": 2050,
      "issues": 2051,
      "master": 2052,
      "cel": 2053,
      "stead": 2054,
      "29": 2055,
      "fu": 2056,
      "gain": 2057,
      "ision": 2058,
      "fit": 2059,
      "length": 2060,
      "pal": 2061,
      "needs": 2062,
      "against": 2063,
      "expected": 2064,
      "dge": 2065,
      "anything": 2066,
      "section": 2067,
      "etc": 2068,
      "valid": 2069,
      "alert": 2070,
      "envir": 2071,
      "escapenumberonly": 2072,
      "half": 2073,
      "told": 2074,
      "sus": 2075,
      "yet": 2076,
      "ouble": 2077,
      "shall": 2078,
      "love": 2079,
      "standard": 2080,
      "kind": 2081,
      "particip": 2082,
      "doll": 2083,
      "fund": 2084,
      "board": 2085,
      "electric": 2086,
      "register": 2087,
      "consu": 2088,
      "remove": 2089,
      "school": 2090,
      "pose": 2091,
      "confident": 2092,
      "road": 2093,
      "100": 2094,
      "correct": 2095,
      "format": 2096,
      "making": 2097,
      "july": 2098,
      "environ": 2099,
      "wind": 2100,
      "problems": 2101,
      "library": 2102,
      "coming": 2103,
      "important": 2104,
      "hy": 2105,
      "image": 2106,
      "tom": 2107,
      "mater": 2108,
      "ious": 2109,
      "hear": 2110,
      "09": 2111,
      "script": 2112,
      "north": 2113,
      "called": 2114,
      "provided": 2115,
      "speedy": 2116,
      "protect": 2117,
      "remain": 2118,
      "resour": 2119,
      "hash": 2120,
      "fed": 2121,
      "white": 2122,
      "required": 2123,
      "dio": 2124,
      "america": 2125,
      "mime": 2126,
      "south": 2127,
      "yst": 2128,
      "opin": 2129,
      "dest": 2130,
      "card": 2131,
      "accor": 2132,
      "nov": 2133,
      "answer": 2134,
      "pescapenumber": 2135,
      "08": 2136,
      "argu": 2137,
      "sco": 2138,
      "mus": 2139,
      "color": 2140,
      "ware": 2141,
      "àí": 2142,
      "cant": 2143,
      "ale": 2144,
      "array": 2145,
      "polic": 2146,
      "express": 2147,
      "datab": 2148,
      "privacy": 2149,
      "bad": 2150,
      "muse": 2151,
      "become": 2152,
      "usa": 2153,
      "bert": 2154,
      "perfor": 2155,
      "wel": 2156,
      "edia": 2157,
      "least": 2158,
      "posed": 2159,
      "later": 2160,
      "fault": 2161,
      "super": 2162,
      "systems": 2163,
      "david": 2164,
      "ties": 2165,
      "estim": 2166,
      "commer": 2167,
      "flo": 2168,
      "official": 2169,
      "fall": 2170,
      "lap": 2171,
      "needed": 2172,
      "frame": 2173,
      "cir": 2174,
      "represent": 2175,
      "upon": 2176,
      "cialis": 2177,
      "broker": 2178,
      "void": 2179,
      "34": 2180,
      "rix": 2181,
      "safe": 2182,
      "markets": 2183,
      "values": 2184,
      "ind": 2185,
      "redu": 2186,
      "winbin": 2187,
      "interested": 2188,
      "either": 2189,
      "loss": 2190,
      "latest": 2191,
      "simply": 2192,
      "heimdal": 2193,
      "diff": 2194,
      "joy": 2195,
      "stuff": 2196,
      "php": 2197,
      "option": 2198,
      "increase": 2199,
      "continu": 2200,
      "manu": 2201,
      "family": 2202,
      "tried": 2203,
      "iev": 2204,
      "third": 2205,
      "oil": 2206,
      "van": 2207,
      "tax": 2208,
      "several": 2209,
      "bil": 2210,
      "ago": 2211,
      "lower": 2212,
      "speech": 2213,
      "csescapenumber": 2214,
      "chr": 2215,
      "continue": 2216,
      "anyone": 2217,
      "ification": 2218,
      "groups": 2219,
      "employe": 2220,
      "eg": 2221,
      "usr": 2222,
      "events": 2223,
      "funds": 2224,
      "talk": 2225,
      "previous": 2226,
      "rpc": 2227,
      "syn": 2228,
      "yours": 2229,
      "21": 2230,
      "clean": 2231,
      "termin": 2232,
      "ins": 2233,
      "users": 2234,
      "tools": 2235,
      "ery": 2236,
      "clou": 2237,
      "museum": 2238,
      "pes": 2239,
      "define": 2240,
      "spo": 2241,
      "whether": 2242,
      "cies": 2243,
      "experience": 2244,
      "director": 2245,
      "az": 2246,
      "wid": 2247,
      "pol": 2248,
      "cable": 2249,
      "gold": 2250,
      "messages": 2251,
      "base": 2252,
      "secure": 2253,
      "travel": 2254,
      "brow": 2255,
      "por": 2256,
      "appreci": 2257,
      "ised": 2258,
      "cong": 2259,
      "seems": 2260,
      "gif": 2261,
      "department": 2262,
      "comes": 2263,
      "97": 2264,
      "mance": 2265,
      "descri": 2266,
      "false": 2267,
      "taking": 2268,
      "party": 2269,
      "host": 2270,
      "rew": 2271,
      "bility": 2272,
      "michael": 2273,
      "receiving": 2274,
      "alternative": 2275,
      "environment": 2276,
      "asked": 2277,
      "plus": 2278,
      "apply": 2279,
      "failed": 2280,
      "regarding": 2281,
      "fire": 2282,
      "ington": 2283,
      "intro": 2284,
      "minutes": 2285,
      "four": 2286,
      "ero": 2287,
      "notice": 2288,
      "itut": 2289,
      "asse": 2290,
      "performance": 2291,
      "eral": 2292,
      "sty": 2293,
      "respect": 2294,
      "06": 2295,
      "sales": 2296,
      "limited": 2297,
      "mart": 2298,
      "wash": 2299,
      "sports": 2300,
      "tries": 2301,
      "blog": 2302,
      "bor": 2303,
      "seen": 2304,
      "field": 2305,
      "iraq": 2306,
      "wards": 2307,
      "hr": 2308,
      "je": 2309,
      "correspon": 2310,
      "tescapenumber": 2311,
      "expens": 2312,
      "713": 2313,
      "profit": 2314,
      "edule": 2315,
      "ana": 2316,
      "manufact": 2317,
      "capital": 2318,
      "imp": 2319,
      "blo": 2320,
      "ground": 2321,
      "matter": 2322,
      "according": 2323,
      "tab": 2324,
      "cted": 2325,
      "matrix": 2326,
      "others": 2327,
      "cru": 2328,
      "gir": 2329,
      "mach": 2330,
      "advertise": 2331,
      "ases": 2332,
      "track": 2333,
      "actually": 2334,
      "marketing": 2335,
      "handle": 2336,
      "ox": 2337,
      "someone": 2338,
      "crit": 2339,
      "western": 2340,
      "unk": 2341,
      "probab": 2342,
      "35": 2343,
      "sed": 2344,
      "happy": 2345,
      "delivery": 2346,
      "ming": 2347,
      "individ": 2348,
      "database": 2349,
      "mike": 2350,
      "schedule": 2351,
      "billion": 2352,
      "weeks": 2353,
      "ention": 2354,
      "finance": 2355,
      "city": 2356,
      "bob": 2357,
      "longer": 2358,
      "solution": 2359,
      "xdg": 2360,
      "pick": 2361,
      "scre": 2362,
      "stre": 2363,
      "louise": 2364,
      "europe": 2365,
      "satur": 2366,
      "cm": 2367,
      "percent": 2368,
      "erry": 2369,
      "tue": 2370,
      "ith": 2371,
      "pie": 2372,
      "prior": 2373,
      "replace": 2374,
      "asure": 2375,
      "enough": 2376,
      "rather": 2377,
      "econ": 2378,
      "strate": 2379,
      "paper": 2380,
      "ient": 2381,
      "material": 2382,
      "hl": 2383,
      "hor": 2384,
      "ung": 2385,
      "sunday": 2386,
      "opportunity": 2387,
      "medications": 2388,
      "kill": 2389,
      "nb": 2390,
      "doc": 2391,
      "clus": 2392,
      "itor": 2393,
      "late": 2394,
      "comb": 2395,
      "brand": 2396,
      "food": 2397,
      "ples": 2398,
      "tonight": 2399,
      "reach": 2400,
      "hol": 2401,
      "period": 2402,
      "integr": 2403,
      "wire": 2404,
      "dom": 2405,
      "ists": 2406,
      "green": 2407,
      "macrom": 2408,
      "tit": 2409,
      "pillescapenumber": 2410,
      "happen": 2411,
      "instead": 2412,
      "steve": 2413,
      "responsi": 2414,
      "uses": 2415,
      "necessary": 2416,
      "confidential": 2417,
      "conference": 2418,
      "payments": 2419,
      "probably": 2420,
      "nd": 2421,
      "macromedia": 2422,
      "covered": 2423,
      "icit": 2424,
      "repli": 2425,
      "running": 2426,
      "nu": 2427,
      "fee": 2428,
      "recomm": 2429,
      "plac": 2430,
      "bring": 2431,
      "prefer": 2432,
      "step": 2433,
      "cache": 2434,
      "configure": 2435,
      "trust": 2436,
      "wn": 2437,
      "individual": 2438,
      "saturday": 2439,
      "added": 2440,
      "eb": 2441,
      "ium": 2442,
      "default": 2443,
      "adminis": 2444,
      "property": 2445,
      "signed": 2446,
      "instruct": 2447,
      "07": 2448,
      "85": 2449,
      "secre": 2450,
      "paul": 2451,
      "ilar": 2452,
      "ceed": 2453,
      "stud": 2454,
      "sescapenumber": 2455,
      "canada": 2456,
      "street": 2457,
      "profile": 2458,
      "ounds": 2459,
      "oh": 2460,
      "amount": 2461,
      "colum": 2462,
      "thon": 2463,
      "dren": 2464,
      "yahoo": 2465,
      "laptop": 2466,
      "drive": 2467,
      "langu": 2468,
      "ham": 2469,
      "aging": 2470,
      "introdu": 2471,
      "ned": 2472,
      "makes": 2473,
      "arg": 2474,
      "ioned": 2475,
      "numbers": 2476,
      "ade": 2477,
      "fect": 2478,
      "five": 2479,
      "decl": 2480,
      "demo": 2481,
      "particular": 2482,
      "black": 2483,
      "candid": 2484,
      "payment": 2485,
      "members": 2486,
      "christ": 2487,
      "reports": 2488,
      "quar": 2489,
      "2004": 2490,
      "plain": 2491,
      "policy": 2492,
      "stocks": 2493,
      "asing": 2494,
      "aa": 2495,
      "entertain": 2496,
      "administr": 2497,
      "remember": 2498,
      "pmc": 2499,
      "atures": 2500,
      "wrong": 2501,
      "washington": 2502,
      "22": 2503,
      "intel": 2504,
      "countries": 2505,
      "refer": 2506,
      "agreed": 2507,
      "omen": 2508,
      "wonder": 2509,
      "along": 2510,
      "publi": 2511,
      "worldwide": 2512,
      "wanted": 2513,
      "static": 2514,
      "analys": 2515,
      "sil": 2516,
      "counts": 2517,
      "rd": 2518,
      "iso": 2519,
      "congr": 2520,
      "jeff": 2521,
      "cerely": 2522,
      "cvs": 2523,
      "cam": 2524,
      "solutions": 2525,
      "las": 2526,
      "mx": 2527,
      "lose": 2528,
      "command": 2529,
      "opinion": 2530,
      "45": 2531,
      "cf": 2532,
      "ising": 2533,
      "paid": 2534,
      "greg": 2535,
      "ler": 2536,
      "updat": 2537,
      "charact": 2538,
      "lie": 2539,
      "interview": 2540,
      "95": 2541,
      "immediately": 2542,
      "outp": 2543,
      "engine": 2544,
      "shipping": 2545,
      "dollars": 2546,
      "31": 2547,
      "km": 2548,
      "pod": 2549,
      "delet": 2550,
      "directory": 2551,
      "activity": 2552,
      "uation": 2553,
      "depend": 2554,
      "ee": 2555,
      "oid": 2556,
      "texas": 2557,
      "operations": 2558,
      "bio": 2559,
      "ral": 2560,
      "toge": 2561,
      "unch": 2562,
      "sold": 2563,
      "choose": 2564,
      "wall": 2565,
      "meter": 2566,
      "didn": 2567,
      "acks": 2568,
      "similar": 2569,
      "publish": 2570,
      "science": 2571,
      "deals": 2572,
      "announced": 2573,
      "children": 2574,
      "output": 2575,
      "changed": 2576,
      "memory": 2577,
      "plant": 2578,
      "statist": 2579,
      "ently": 2580,
      "ahead": 2581,
      "ene": 2582,
      "compet": 2583,
      "flags": 2584,
      "une": 2585,
      "ender": 2586,
      "chance": 2587,
      "warning": 2588,
      "growth": 2589,
      "together": 2590,
      "jones": 2591,
      "statement": 2592,
      "resources": 2593,
      "train": 2594,
      "mind": 2595,
      "dc": 2596,
      "idea": 2597,
      "worth": 2598,
      "books": 2599,
      "46": 2600,
      "area": 2601,
      "fox": 2602,
      "rup": 2603,
      "inside": 2604,
      "td": 2605,
      "wy": 2606,
      "plans": 2607,
      "thousands": 2608,
      "mag": 2609,
      "ata": 2610,
      "ables": 2611,
      "medic": 2612,
      "decision": 2613,
      "ko": 2614,
      "enjoy": 2615,
      "commands": 2616,
      "operation": 2617,
      "industri": 2618,
      "mes": 2619,
      "pdf": 2620,
      "likely": 2621,
      "mel": 2622,
      "reference": 2623,
      "focus": 2624,
      "community": 2625,
      "tv": 2626,
      "creative": 2627,
      "structure": 2628,
      "sincerely": 2629,
      "exchange": 2630,
      "boy": 2631,
      "response": 2632,
      "98": 2633,
      "satis": 2634,
      "promot": 2635,
      "six": 2636,
      "pid": 2637,
      "prom": 2638,
      "sex": 2639,
      "discount": 2640,
      "patent": 2641,
      "production": 2642,
      "dv": 2643,
      "atives": 2644,
      "tree": 2645,
      "òµ": 2646,
      "sep": 2647,
      "ively": 2648,
      "whole": 2649,
      "aver": 2650,
      "tru": 2651,
      "reco": 2652,
      "ledge": 2653,
      "commercial": 2654,
      "ism": 2655,
      "forecast": 2656,
      "chair": 2657,
      "pret": 2658,
      "roll": 2659,
      "saf": 2660,
      "foreign": 2661,
      "wood": 2662,
      "variable": 2663,
      "popular": 2664,
      "ible": 2665,
      "normal": 2666,
      "decid": 2667,
      "intescapenumber": 2668,
      "lowest": 2669,
      "commiss": 2670,
      "sale": 2671,
      "summer": 2672,
      "potential": 2673,
      "ror": 2674,
      "chris": 2675,
      "specific": 2676,
      "fig": 2677,
      "counter": 2678,
      "analysis": 2679,
      "communications": 2680,
      "wise": 2681,
      "ax": 2682,
      "cis": 2683,
      "cket": 2684,
      "east": 2685,
      "moment": 2686,
      "calcul": 2687,
      "women": 2688,
      "meds": 2689,
      "watches": 2690,
      "bbc": 2691,
      "entertainment": 2692,
      "pgp": 2693,
      "tx": 2694,
      "took": 2695,
      "obtain": 2696,
      "active": 2697,
      "photoshop": 2698,
      "spect": 2699,
      "amb": 2700,
      "demand": 2701,
      "nego": 2702,
      "partner": 2703,
      "contains": 2704,
      "distribution": 2705,
      "nick": 2706,
      "nss": 2707,
      "words": 2708,
      "features": 2709,
      "points": 2710,
      "tage": 2711,
      "ordin": 2712,
      "spl": 2713,
      "sort": 2714,
      "avor": 2715,
      "union": 2716,
      "cry": 2717,
      "src": 2718,
      "employees": 2719,
      "ring": 2720,
      "quite": 2721,
      "entire": 2722,
      "interface": 2723,
      "sn": 2724,
      "exact": 2725,
      "london": 2726,
      "33": 2727,
      "hund": 2728,
      "lay": 2729,
      "spr": 2730,
      "fran": 2731,
      "went": 2732,
      "defined": 2733,
      "ons": 2734,
      "lig": 2735,
      "approval": 2736,
      "sequ": 2737,
      "treat": 2738,
      "gift": 2739,
      "effici": 2740,
      "programs": 2741,
      "gress": 2742,
      "ends": 2743,
      "ending": 2744,
      "building": 2745,
      "75": 2746,
      "emb": 2747,
      "everyone": 2748,
      "zon": 2749,
      "ena": 2750,
      "lect": 2751,
      "court": 2752,
      "schedul": 2753,
      "40": 2754,
      "liam": 2755,
      "heart": 2756,
      "investors": 2757,
      "aut": 2758,
      "feed": 2759,
      "created": 2760,
      "hur": 2761,
      "isn": 2762,
      "stay": 2763,
      "gust": 2764,
      "signifi": 2765,
      "aft": 2766,
      "escapenumberth": 2767,
      "maybe": 2768,
      "complet": 2769,
      "settings": 2770,
      "hill": 2771,
      "lor": 2772,
      "ries": 2773,
      "vil": 2774,
      "phy": 2775,
      "improve": 2776,
      "voice": 2777,
      "packages": 2778,
      "location": 2779,
      "writes": 2780,
      "thu": 2781,
      "force": 2782,
      "everything": 2783,
      "huge": 2784,
      "former": 2785,
      "politics": 2786,
      "ball": 2787,
      "extra": 2788,
      "uintescapenumber": 2789,
      "phil": 2790,
      "fair": 2791,
      "ators": 2792,
      "almost": 2793,
      "cheap": 2794,
      "among": 2795,
      "cum": 2796,
      "fel": 2797,
      "escapenumbers": 2798,
      "perfect": 2799,
      "directly": 2800,
      "gar": 2801,
      "hat": 2802,
      "lim": 2803,
      "prise": 2804,
      "apple": 2805,
      "mith": 2806,
      "believ": 2807,
      "analyst": 2808,
      "range": 2809,
      "ads": 2810,
      "coll": 2811,
      "mailto": 2812,
      "january": 2813,
      "political": 2814,
      "diffic": 2815,
      "mescapenumber": 2816,
      "sunny": 2817,
      "tele": 2818,
      "compil": 2819,
      "commission": 2820,
      "pam": 2821,
      "confirm": 2822,
      "compli": 2823,
      "except": 2824,
      "branch": 2825,
      "hpl": 2826,
      "env": 2827,
      "bud": 2828,
      "pac": 2829,
      "asp": 2830,
      "therefore": 2831,
      "effective": 2832,
      "approved": 2833,
      "ino": 2834,
      "els": 2835,
      "eline": 2836,
      "often": 2837,
      "cia": 2838,
      "evening": 2839,
      "ink": 2840,
      "ury": 2841,
      "ution": 2842,
      "pract": 2843,
      "newsletter": 2844,
      "goog": 2845,
      "deleted": 2846,
      "60": 2847,
      "msn": 2848,
      "march": 2849,
      "god": 2850,
      "robert": 2851,
      "calls": 2852,
      "mur": 2853,
      "roy": 2854,
      "entry": 2855,
      "lier": 2856,
      "taken": 2857,
      "cred": 2858,
      "fili": 2859,
      "methods": 2860,
      "dle": 2861,
      "record": 2862,
      "giving": 2863,
      "antic": 2864,
      "single": 2865,
      "fre": 2866,
      "extre": 2867,
      "items": 2868,
      "friends": 2869,
      "krbescapenumber": 2870,
      "negoti": 2871,
      "started": 2872,
      "released": 2873,
      "ula": 2874,
      "held": 2875,
      "volume": 2876,
      "rescapenumber": 2877,
      "transactions": 2878,
      "fron": 2879,
      "session": 2880,
      "predi": 2881,
      "unit": 2882,
      "affili": 2883,
      "gan": 2884,
      "shir": 2885,
      "logies": 2886,
      "smith": 2887,
      "ulation": 2888,
      "mob": 2889,
      "core": 2890,
      "rand": 2891,
      "display": 2892,
      "google": 2893,
      "gate": 2894,
      "james": 2895,
      "nice": 2896,
      "functions": 2897,
      "url": 2898,
      "sho": 2899,
      "ki": 2900,
      "acro": 2901,
      "knowledge": 2902,
      "risks": 2903,
      "36": 2904,
      "zz": 2905,
      "promo": 2906,
      "condit": 2907,
      "feature": 2908,
      "smo": 2909,
      "stream": 2910,
      "trouble": 2911,
      "avoid": 2912,
      "attention": 2913,
      "partners": 2914,
      "crat": 2915,
      "corporate": 2916,
      "conditions": 2917,
      "lev": 2918,
      "foo": 2919,
      "looks": 2920,
      "capac": 2921,
      "temp": 2922,
      "corporation": 2923,
      "china": 2924,
      "gets": 2925,
      "44": 2926,
      "comput": 2927,
      "young": 2928,
      "qui": 2929,
      "gnu": 2930,
      "txt": 2931,
      "pict": 2932,
      "station": 2933,
      "vey": 2934,
      "38": 2935,
      "orge": 2936,
      "advertisement": 2937,
      "mentioned": 2938,
      "independ": 2939,
      "fat": 2940,
      "gon": 2941,
      "cop": 2942,
      "dead": 2943,
      "tee": 2944,
      "resol": 2945,
      "factor": 2946,
      "mbol": 2947,
      "tos": 2948,
      "star": 2949,
      "sheet": 2950,
      "writing": 2951,
      "significant": 2952,
      "luck": 2953,
      "vista": 2954,
      "edition": 2955,
      "haps": 2956,
      "printf": 2957,
      "ticket": 2958,
      "digital": 2959,
      "winbindd": 2960,
      "bes": 2961,
      "idence": 2962,
      "ane": 2963,
      "contribut": 2964,
      "push": 2965,
      "dou": 2966,
      "leave": 2967,
      "tery": 2968,
      "modu": 2969,
      "owner": 2970,
      "archive": 2971,
      "gb": 2972,
      "ior": 2973,
      "mmb": 2974,
      "pip": 2975,
      "connect": 2976,
      "manufactur": 2977,
      "zero": 2978,
      "andrew": 2979,
      "perform": 2980,
      "prescri": 2981,
      "??": 2982,
      "numer": 2983,
      "rating": 2984,
      "python": 2985,
      "studio": 2986,
      "situation": 2987,
      "alias": 2988,
      "perhaps": 2989,
      "approach": 2990,
      "announce": 2991,
      "multiple": 2992,
      "width": 2993,
      "dece": 2994,
      "series": 2995,
      "wait": 2996,
      "inci": 2997,
      "2005": 2998,
      "detailed": 2999,
      "ustr": 3000,
      "relation": 3001,
      "across": 3002,
      "operating": 3003,
      "game": 3004,
      "father": 3005,
      "missing": 3006,
      "william": 3007,
      "appear": 3008,
      "module": 3009,
      "ldb": 3010,
      "includes": 3011,
      "registry": 3012,
      "history": 3013,
      "cb": 3014,
      "fight": 3015,
      "gone": 3016,
      "dia": 3017,
      "obj": 3018,
      "frank": 3019,
      "choice": 3020,
      "glad": 3021,
      "welcome": 3022,
      "90": 3023,
      "fle": 3024,
      "èë": 3025,
      "msg": 3026,
      "mir": 3027,
      "sym": 3028,
      "reliable": 3029,
      "hon": 3030,
      "witch": 3031,
      "48": 3032,
      "death": 3033,
      "exc": 3034,
      "raw": 3035,
      "organization": 3036,
      "chief": 3037,
      "ran": 3038,
      "input": 3039,
      "separ": 3040,
      "projects": 3041,
      "ldap": 3042,
      "pression": 3043,
      "tridge": 3044,
      "bid": 3045,
      "mas": 3046,
      "submit": 3047,
      "biz": 3048,
      "ib": 3049,
      "plat": 3050,
      "dyne": 3051,
      "offering": 3052,
      "recently": 3053,
      "mobile": 3054,
      "pon": 3055,
      "wife": 3056,
      "myself": 3057,
      "suit": 3058,
      "registered": 3059,
      "capacity": 3060,
      "sense": 3061,
      "licensed": 3062,
      "assets": 3063,
      "espe": 3064,
      "takes": 3065,
      "round": 3066,
      "actual": 3067,
      "closed": 3068,
      "screen": 3069,
      "parse": 3070,
      "attach": 3071,
      "mother": 3072,
      "included": 3073,
      "guid": 3074,
      "connection": 3075,
      "correspond": 3076,
      "propos": 3077,
      "child": 3078,
      "tempt": 3079,
      "thom": 3080,
      "accur": 3081,
      "mmbtu": 3082,
      "town": 3083,
      "grad": 3084,
      "brian": 3085,
      "econom": 3086,
      "pped": 3087,
      "ired": 3088,
      "investig": 3089,
      "initial": 3090,
      "rupt": 3091,
      "descapenumberse": 3092,
      "federal": 3093,
      "pric": 3094,
      "fy": 3095,
      "lad": 3096,
      "reci": 3097,
      "essential": 3098,
      "ires": 3099,
      "leading": 3100,
      "cons": 3101,
      "useful": 3102,
      "orders": 3103,
      "node": 3104,
      "exper": 3105,
      "suppli": 3106,
      "premium": 3107,
      "enue": 3108,
      "door": 3109,
      "''": 3110,
      "zy": 3111,
      "music": 3112,
      "lau": 3113,
      "costs": 3114,
      "quarter": 3115,
      "dynegy": 3116,
      "models": 3117,
      "growing": 3118,
      "tmp": 3119,
      "za": 3120,
      "ceut": 3121,
      "prep": 3122,
      "offered": 3123,
      "xxxx": 3124,
      "secret": 3125,
      "surance": 3126,
      "cross": 3127,
      "estab": 3128,
      "acrobat": 3129,
      "graphics": 3130,
      "democrat": 3131,
      "cp": 3132,
      "ues": 3133,
      "viewcvs": 3134,
      "header": 3135,
      "gun": 3136,
      "dies": 3137,
      "provides": 3138,
      "considered": 3139,
      "intended": 3140,
      "charges": 3141,
      "benefits": 3142,
      "37": 3143,
      "gpl": 3144,
      "zing": 3145,
      "august": 3146,
      "expectations": 3147,
      "affect": 3148,
      "¡£": 3149,
      "appropri": 3150,
      "recommend": 3151,
      "hes": 3152,
      "sas": 3153,
      "parame": 3154,
      "flu": 3155,
      "tou": 3156,
      "signature": 3157,
      "ja": 3158,
      "none": 3159,
      "üàí": 3160,
      "api": 3161,
      "written": 3162,
      "language": 3163,
      "gree": 3164,
      "hen": 3165,
      "jour": 3166,
      "acl": 3167,
      "smbd": 3168,
      "human": 3169,
      "centre": 3170,
      "utilities": 3171,
      "implementation": 3172,
      "decided": 3173,
      "block": 3174,
      "squ": 3175,
      "escapenumbert": 3176,
      "nsswitch": 3177,
      "hit": 3178,
      "iy": 3179,
      "ptions": 3180,
      "flight": 3181,
      "mt": 3182,
      "htm": 3183,
      "ays": 3184,
      "stan": 3185,
      "strict": 3186,
      "ili": 3187,
      "mw": 3188,
      "ering": 3189,
      "trunk": 3190,
      "communication": 3191,
      "pread": 3192,
      "developer": 3193,
      "ensure": 3194,
      "testing": 3195,
      "unique": 3196,
      "committee": 3197,
      "sq": 3198,
      "libs": 3199,
      "electricity": 3200,
      "girl": 3201,
      "average": 3202,
      "mass": 3203,
      "rates": 3204,
      "cert": 3205,
      "various": 3206,
      "claims": 3207,
      "pd": 3208,
      "enn": 3209,
      "debt": 3210,
      "óë": 3211,
      "cially": 3212,
      "india": 3213,
      "technologies": 3214,
      "ros": 3215,
      "businesses": 3216,
      "88": 3217,
      "pull": 3218,
      "providing": 3219,
      "supply": 3220,
      "noon": 3221,
      "symbol": 3222,
      "dreams": 3223,
      "sources": 3224,
      "subscribed": 3225,
      "500": 3226,
      "guarantee": 3227,
      "vice": 3228,
      "lots": 3229,
      "yester": 3230,
      "penis": 3231,
      "fine": 3232,
      "ica": 3233,
      "thail": 3234,
      "ita": 3235,
      "advance": 3236,
      "sorry": 3237,
      "jer": 3238,
      "rick": 3239,
      "sle": 3240,
      "2002": 3241,
      "aol": 3242,
      "automat": 3243,
      "contracts": 3244,
      "richard": 3245,
      "thailand": 3246,
      "verse": 3247,
      "grant": 3248,
      "pts": 3249,
      "income": 3250,
      "parties": 3251,
      "woman": 3252,
      "kernel": 3253,
      "establish": 3254,
      "tort": 3255,
      "discre": 3256,
      "effects": 3257,
      "selling": 3258,
      "award": 3259,
      "morrow": 3260,
      "instructions": 3261,
      "front": 3262,
      "fd": 3263,
      "staff": 3264,
      "medical": 3265,
      "explain": 3266,
      "machine": 3267,
      "nescapenumber": 3268,
      "tor": 3269,
      "assum": 3270,
      "para": 3271,
      "assistance": 3272,
      "jim": 3273,
      "isition": 3274,
      "stra": 3275,
      "password": 3276,
      "character": 3277,
      "yesterday": 3278,
      "lm": 3279,
      "atory": 3280,
      "neg": 3281,
      "shi": 3282,
      "heard": 3283,
      "paign": 3284,
      "ump": 3285,
      "norm": 3286,
      "¡¤": 3287,
      "ony": 3288,
      "brit": 3289,
      "ava": 3290,
      "device": 3291,
      "explor": 3292,
      "activities": 3293,
      "argument": 3294,
      "figure": 3295,
      "llc": 3296,
      "80": 3297,
      "idmap": 3298,
      "doctor": 3299,
      "regular": 3300,
      "fixed": 3301,
      "broadcast": 3302,
      "ceutical": 3303,
      "ram": 3304,
      "george": 3305,
      "skill": 3306,
      "campaign": 3307,
      "nas": 3308,
      "clar": 3309,
      "eval": 3310,
      "millions": 3311,
      "poll": 3312,
      "types": 3313,
      "cases": 3314,
      "bul": 3315,
      "enlarge": 3316,
      "reading": 3317,
      "daren": 3318,
      "favor": 3319,
      "dos": 3320,
      "floor": 3321,
      "vas": 3322,
      "optim": 3323,
      "spon": 3324,
      "installed": 3325,
      "quo": 3326,
      "sample": 3327,
      "successful": 3328,
      "torture": 3329,
      "ik": 3330,
      "prepar": 3331,
      "park": 3332,
      "charge": 3333,
      "transmission": 3334,
      "condition": 3335,
      "channel": 3336,
      "kitch": 3337,
      "thus": 3338,
      "ination": 3339,
      "unknown": 3340,
      "afri": 3341,
      "poor": 3342,
      "looked": 3343,
      "sites": 3344,
      "positions": 3345,
      "martin": 3346,
      "55": 3347,
      "beh": 3348,
      "spir": 3349,
      "buying": 3350,
      "column": 3351,
      "emer": 3352,
      "kil": 3353,
      "lis": 3354,
      "techn": 3355,
      "pain": 3356,
      "assign": 3357,
      "berg": 3358,
      "instant": 3359,
      "scan": 3360,
      "gov": 3361,
      "ud": 3362,
      "guaranteed": 3363,
      "adding": 3364,
      "alerts": 3365,
      "kitchen": 3366,
      "irs": 3367,
      "transport": 3368,
      "camp": 3369,
      "investor": 3370,
      "tomorrow": 3371,
      "unities": 3372,
      "hardware": 3373,
      "kn": 3374,
      "mk": 3375,
      "documentation": 3376,
      "exactly": 3377,
      "regul": 3378,
      "angel": 3379,
      "æó": 3380,
      "applications": 3381,
      "guard": 3382,
      "although": 3383,
      "broadband": 3384,
      "ceo": 3385,
      "resh": 3386,
      "schedules": 3387,
      "expenses": 3388,
      "ix": 3389,
      "xy": 3390,
      "became": 3391,
      "eyes": 3392,
      "gor": 3393,
      "sand": 3394,
      "encies": 3395,
      "quant": 3396,
      "bott": 3397,
      "produce": 3398,
      "ished": 3399,
      "flash": 3400,
      "ec": 3401,
      "ees": 3402,
      "rat": 3403,
      "liqu": 3404,
      "leader": 3405,
      "areas": 3406,
      "middle": 3407,
      "blogs": 3408,
      "viol": 3409,
      "ops": 3410,
      "emails": 3411,
      "solar": 3412,
      "involve": 3413,
      "detect": 3414,
      "paint": 3415,
      "rain": 3416,
      "developing": 3417,
      "passed": 3418,
      "requirements": 3419,
      "pretty": 3420,
      "shirley": 3421,
      "boun": 3422,
      "cit": 3423,
      "mode": 3424,
      "height": 3425,
      "consult": 3426,
      "tick": 3427,
      "lost": 3428,
      "saving": 3429,
      "police": 3430,
      "bull": 3431,
      "imm": 3432,
      "tember": 3433,
      "octo": 3434,
      "tabs": 3435,
      "align": 3436,
      "starting": 3437,
      "valued": 3438,
      "behind": 3439,
      "jack": 3440,
      "hd": 3441,
      "nie": 3442,
      "mad": 3443,
      "igr": 3444,
      "maintain": 3445,
      "appreciate": 3446,
      "utility": 3447,
      "english": 3448,
      "pharmaceutical": 3449,
      "september": 3450,
      "igh": 3451,
      "grand": 3452,
      "formula": 3453,
      "gives": 3454,
      "changeset": 3455,
      "october": 3456,
      "georg": 3457,
      "easily": 3458,
      "appropriate": 3459,
      "77": 3460,
      "39": 3461,
      "px": 3462,
      "enty": 3463,
      "central": 3464,
      "ses": 3465,
      "ilities": 3466,
      "forts": 3467,
      "meaning": 3468,
      "advantage": 3469,
      "student": 3470,
      "recogn": 3471,
      "subst": 3472,
      "consum": 3473,
      "boot": 3474,
      "thinking": 3475,
      "advanced": 3476,
      "pley": 3477,
      "itself": 3478,
      "unix": 3479,
      "quickly": 3480,
      "echo": 3481,
      "ky": 3482,
      "mou": 3483,
      "vfs": 3484,
      "·¢": 3485,
      "req": 3486,
      "helps": 3487,
      "zo": 3488,
      "kevin": 3489,
      "spam": 3490,
      "title": 3491,
      "anticip": 3492,
      "hab": 3493,
      "escapenumbera": 3494,
      "proto": 3495,
      "timest": 3496,
      "ptr": 3497,
      "innov": 3498,
      "extens": 3499,
      "understanding": 3500,
      "fan": 3501,
      "attempt": 3502,
      "extract": 3503,
      "earning": 3504,
      "basis": 3505,
      "built": 3506,
      "vc": 3507,
      "wis": 3508,
      "sie": 3509,
      "marks": 3510,
      "institut": 3511,
      "occur": 3512,
      "histor": 3513,
      "spread": 3514,
      "attri": 3515,
      "sky": 3516,
      "variables": 3517,
      "style": 3518,
      "independent": 3519,
      "slow": 3520,
      "condu": 3521,
      "notes": 3522,
      "corel": 3523,
      "lookup": 3524,
      "timestamp": 3525,
      "pas": 3526,
      "foot": 3527,
      "logo": 3528,
      "dele": 3529,
      "dim": 3530,
      "oem": 3531,
      "tro": 3532,
      "enti": 3533,
      "progress": 3534,
      "ously": 3535,
      "removed": 3536,
      "games": 3537,
      "kar": 3538,
      "thern": 3539,
      "herein": 3540,
      "completed": 3541,
      "managing": 3542,
      "feedback": 3543,
      "difficult": 3544,
      "nove": 3545,
      "absolut": 3546,
      "deriv": 3547,
      "efforts": 3548,
      "officer": 3549,
      "hearing": 3550,
      "itive": 3551,
      "higher": 3552,
      "bly": 3553,
      "jerry": 3554,
      "ome": 3555,
      "fortun": 3556,
      "existing": 3557,
      "impact": 3558,
      "training": 3559,
      "located": 3560,
      "dose": 3561,
      "shut": 3562,
      "summary": 3563,
      "waiting": 3564,
      "nc": 3565,
      "deep": 3566,
      "ej": 3567,
      "gent": 3568,
      "rap": 3569,
      "ake": 3570,
      "worked": 3571,
      "standing": 3572,
      "bc": 3573,
      "onto": 3574,
      "arm": 3575,
      "pping": 3576,
      "lottery": 3577,
      "pin": 3578,
      "ona": 3579,
      "ond": 3580,
      "earth": 3581,
      "regional": 3582,
      "executive": 3583,
      "button": 3584,
      "internal": 3585,
      "ridge": 3586,
      "documents": 3587,
      "assistant": 3588,
      "tes": 3589,
      "ripley": 3590,
      "uls": 3591,
      "basic": 3592,
      "factors": 3593,
      "magic": 3594,
      "effort": 3595,
      "eria": 3596,
      "november": 3597,
      "cin": 3598,
      "cad": 3599,
      "social": 3600,
      "foli": 3601,
      "reported": 3602,
      "restri": 3603,
      "gt": 3604,
      "ano": 3605,
      "saw": 3606,
      "oles": 3607,
      "cally": 3608,
      "susp": 3609,
      "aids": 3610,
      "border": 3611,
      "din": 3612,
      "selves": 3613,
      "saying": 3614,
      "maxim": 3615,
      "double": 3616,
      "expand": 3617,
      "equity": 3618,
      "afternoon": 3619,
      "keys": 3620,
      "unless": 3621,
      "opportunities": 3622,
      "70": 3623,
      "wd": 3624,
      "named": 3625,
      "cmd": 3626,
      "crow": 3627,
      "haven": 3628,
      "sys": 3629,
      "ae": 3630,
      "rm": 3631,
      "ival": 3632,
      "profess": 3633,
      "pounds": 3634,
      "ray": 3635,
      "movi": 3636,
      "mix": 3637,
      "varian": 3638,
      "discussed": 3639,
      "administration": 3640,
      "sponsor": 3641,
      "attribut": 3642,
      "hex": 3643,
      "µç": 3644,
      "chall": 3645,
      "emy": 3646,
      "beginning": 3647,
      "candidate": 3648,
      "gescapenumber": 3649,
      "ub": 3650,
      "plug": 3651,
      "career": 3652,
      "vs": 3653,
      "returns": 3654,
      "scient": 3655,
      "pk": 3656,
      "ined": 3657,
      "beth": 3658,
      "kets": 3659,
      "topic": 3660,
      "storage": 3661,
      "rise": 3662,
      "ara": 3663,
      "outside": 3664,
      "gue": 3665,
      "approx": 3666,
      "hun": 3667,
      "cade": 3668,
      "caps": 3669,
      "rock": 3670,
      "faith": 3671,
      "aware": 3672,
      "rus": 3673,
      "itu": 3674,
      "exclus": 3675,
      "agent": 3676,
      "counting": 3677,
      "completely": 3678,
      "öð": 3679,
      "guess": 3680,
      "otc": 3681,
      "clients": 3682,
      "arrange": 3683,
      "bt": 3684,
      "moun": 3685,
      "imate": 3686,
      "portfoli": 3687,
      "talking": 3688,
      "electron": 3689,
      "updated": 3690,
      "earlier": 3691,
      "65": 3692,
      "iel": 3693,
      "óã": 3694,
      "nbsp": 3695,
      "atlan": 3696,
      "stage": 3697,
      "fold": 3698,
      "enterprise": 3699,
      "blood": 3700,
      "split": 3701,
      "december": 3702,
      "georgia": 3703,
      "leav": 3704,
      "exer": 3705,
      "serious": 3706,
      "blue": 3707,
      "solicit": 3708,
      "shows": 3709,
      "constant": 3710,
      "cbsnews": 3711,
      "eye": 3712,
      "manual": 3713,
      "compar": 3714,
      "amazing": 3715,
      "ka": 3716,
      "dvd": 3717,
      "thes": 3718,
      "compl": 3719,
      "uncertain": 3720,
      "hood": 3721,
      "drop": 3722,
      "32": 3723,
      "sound": 3724,
      "etch": 3725,
      "generation": 3726,
      "spring": 3727,
      "technical": 3728,
      "47": 3729,
      "dut": 3730,
      "ón": 3731,
      "conven": 3732,
      "dire": 3733,
      "petite": 3734,
      "delete": 3735,
      "cale": 3736,
      "moving": 3737,
      "fied": 3738,
      "couple": 3739,
      "strateg": 3740,
      "physi": 3741,
      "vl": 3742,
      "xml": 3743,
      "obvious": 3744,
      "claimed": 3745,
      "expensive": 3746,
      "pleased": 3747,
      "modules": 3748,
      "rolex": 3749,
      "medicines": 3750,
      "random": 3751,
      "æóòµ": 3752,
      "atlanta": 3753,
      "éú": 3754,
      "elines": 3755,
      "docs": 3756,
      "listed": 3757,
      "febr": 3758,
      "mailings": 3759,
      "immediate": 3760,
      "wers": 3761,
      "turned": 3762,
      "itemyour": 3763,
      "discussion": 3764,
      "foundation": 3765,
      "vp": 3766,
      "provision": 3767,
      "discounts": 3768,
      "gmail": 3769,
      "measure": 3770,
      "scott": 3771,
      "congress": 3772,
      "cool": 3773,
      "mails": 3774,
      "cating": 3775,
      "milit": 3776,
      "nes": 3777,
      "nomin": 3778,
      "otherwise": 3779,
      "sending": 3780,
      "financing": 3781,
      "walk": 3782,
      "zonk": 3783,
      "ably": 3784,
      "finally": 3785,
      "mine": 3786,
      "heav": 3787,
      "offset": 3788,
      "designed": 3789,
      "especially": 3790,
      "lif": 3791,
      "ura": 3792,
      "appetite": 3793,
      "prize": 3794,
      "investing": 3795,
      "senior": 3796,
      "breaking": 3797,
      "platform": 3798,
      "49": 3799,
      "tour": 3800,
      "princi": 3801,
      "goes": 3802,
      "launch": 3803,
      "annual": 3804,
      "purpose": 3805,
      "commondreams": 3806,
      "committer": 3807,
      "xico": 3808,
      "protection": 3809,
      "ku": 3810,
      "shaw": 3811,
      "invo": 3812,
      "observ": 3813,
      "levels": 3814,
      "statistics": 3815,
      "grid": 3816,
      "jh": 3817,
      "¼°": 3818,
      "loan": 3819,
      "margin": 3820,
      "crash": 3821,
      "initi": 3822,
      "coordin": 3823,
      "grade": 3824,
      "pit": 3825,
      "wic": 3826,
      "¢": 3827,
      "involved": 3828,
      "hdr": 3829,
      "constru": 3830,
      "bla": 3831,
      "enced": 3832,
      "creating": 3833,
      "setup": 3834,
      "returned": 3835,
      "pati": 3836,
      "larry": 3837,
      "february": 3838,
      "aged": 3839,
      "processing": 3840,
      "suggestions": 3841,
      "frequ": 3842,
      "iescapenumber": 3843,
      "pir": 3844,
      "chen": 3845,
      "dup": 3846,
      "placed": 3847,
      "bir": 3848,
      "alex": 3849,
      "letters": 3850,
      "buffer": 3851,
      "acquisition": 3852,
      "pipeline": 3853,
      "twar": 3854,
      "whose": 3855,
      "education": 3856,
      "correspondence": 3857,
      "ien": 3858,
      "coast": 3859,
      "ships": 3860,
      "examples": 3861,
      "radio": 3862,
      "conn": 3863,
      "legis": 3864,
      "premiere": 3865,
      "liquid": 3866,
      "rt": 3867,
      "officials": 3868,
      "umes": 3869,
      "gam": 3870,
      "ato": 3871,
      "iter": 3872,
      "bey": 3873,
      "winning": 3874,
      "calling": 3875,
      "checking": 3876,
      "loop": 3877,
      "proposed": 3878,
      "rice": 3879,
      "illustr": 3880,
      "enders": 3881,
      "survey": 3882,
      "ein": 3883,
      "ease": 3884,
      "enda": 3885,
      "braz": 3886,
      "versions": 3887,
      "locks": 3888,
      "stores": 3889,
      "chica": 3890,
      "renew": 3891,
      "thousand": 3892,
      "bilities": 3893,
      "escapenumberm": 3894,
      "ald": 3895,
      "ctors": 3896,
      "sizeof": 3897,
      "sig": 3898,
      "elle": 3899,
      "itra": 3900,
      "sector": 3901,
      "ida": 3902,
      "gave": 3903,
      "planning": 3904,
      "ek": 3905,
      "ktwar": 3906,
      "rules": 3907,
      "¹«": 3908,
      "cabot": 3909,
      "revno": 3910,
      "powerful": 3911,
      "enhan": 3912,
      "senate": 3913,
      "safety": 3914,
      "bz": 3915,
      "behalf": 3916,
      "tag": 3917,
      "died": 3918,
      "afford": 3919,
      "highly": 3920,
      "selected": 3921,
      "professor": 3922,
      "param": 3923,
      "testpanel": 3924,
      "proposal": 3925,
      "zu": 3926,
      "proceed": 3927,
      "uncertainties": 3928,
      "ried": 3929,
      "imag": 3930,
      "ktwarwic": 3931,
      "escapenumberpm": 3932,
      "aries": 3933,
      "srv": 3934,
      "desktop": 3935,
      "¡¡¡¡": 3936,
      "kids": 3937,
      "lee": 3938,
      "ideas": 3939,
      "57": 3940,
      "fresh": 3941,
      "mort": 3942,
      "spot": 3943,
      "insurance": 3944,
      "andy": 3945,
      "icles": 3946,
      "region": 3947,
      "charset": 3948,
      "consist": 3949,
      "rey": 3950,
      "degree": 3951,
      "unable": 3952,
      "resume": 3953,
      "paste": 3954,
      "programming": 3955,
      "estimates": 3956,
      "clouds": 3957,
      "óð": 3958,
      "izing": 3959,
      "attend": 3960,
      "von": 3961,
      "season": 3962,
      "auf": 3963,
      "study": 3964,
      "chicago": 3965,
      "oth": 3966,
      "reat": 3967,
      "usage": 3968,
      "peter": 3969,
      "cheers": 3970,
      "easier": 3971,
      "danger": 3972,
      "winbind": 3973,
      "prompt": 3974,
      "efficient": 3975,
      "stone": 3976,
      "solid": 3977,
      "pages": 3978,
      "sharehold": 3979,
      "chairman": 3980,
      "treatment": 3981,
      "journal": 3982,
      "ales": 3983,
      "ari": 3984,
      "cos": 3985,
      "maker": 3986,
      "difference": 3987,
      "alone": 3988,
      "subscription": 3989,
      "errors": 3990,
      "svn": 3991,
      "ench": 3992,
      "dbcaps": 3993,
      "producttestpanel": 3994,
      "largest": 3995,
      "brief": 3996,
      "previously": 3997,
      "aim": 3998,
      "nl": 3999,
      "ati": 4000,
      "edit": 4001,
      "agr": 4002,
      "listen": 4003,
      "presidential": 4004,
      "96": 4005,
      "shell": 4006,
      "steph": 4007,
      "ora": 4008,
      "earn": 4009,
      "steps": 4010,
      "sir": 4011,
      "imately": 4012,
      "sambaescapenumber": 4013,
      "prime": 4014,
      "bag": 4015,
      "assu": 4016,
      "imin": 4017,
      "associated": 4018,
      "pressure": 4019,
      "monthly": 4020,
      "farmer": 4021,
      "touch": 4022,
      "apo": 4023,
      "îñ": 4024,
      "sole": 4025,
      "anywhere": 4026,
      "imagine": 4027,
      "snow": 4028,
      "wit": 4029,
      "escapenumberpx": 4030,
      "icks": 4031,
      "veh": 4032,
      "vector": 4033,
      "uration": 4034,
      "export": 4035,
      "monitor": 4036,
      "follows": 4037,
      "attor": 4038,
      "brown": 4039,
      "physical": 4040,
      "×÷": 4041,
      "living": 4042,
      "pleasure": 4043,
      "compuls": 4044,
      "bounces": 4045,
      "aust": 4046,
      "dney": 4047,
      "compon": 4048,
      "pricing": 4049,
      "portfolio": 4050,
      "sche": 4051,
      "adjust": 4052,
      "ulate": 4053,
      "reporting": 4054,
      "bankrupt": 4055,
      "benefit": 4056,
      "fuel": 4057,
      "swe": 4058,
      "uit": 4059,
      "association": 4060,
      "cloudy": 4061,
      "africa": 4062,
      "zip": 4063,
      "threat": 4064,
      "excell": 4065,
      "prevent": 4066,
      "allows": 4067,
      "appears": 4068,
      "rs": 4069,
      "repl": 4070,
      "republi": 4071,
      "ets": 4072,
      "broken": 4073,
      "piece": 4074,
      "öæ": 4075,
      "úæ": 4076,
      "ada": 4077,
      "presence": 4078,
      "We": 4079,
      "hus": 4080,
      "encour": 4081,
      "reds": 4082,
      "shine": 4083,
      "draft": 4084,
      "increased": 4085,
      "hundred": 4086,
      "prepared": 4087,
      "fortunately": 4088,
      "gall": 4089,
      "sar": 4090,
      "proced": 4091,
      "applied": 4092,
      "farm": 4093,
      "hottest": 4094,
      "republican": 4095,
      "jel": 4096,
      "uv": 4097,
      "zi": 4098,
      "repe": 4099,
      "accounting": 4100,
      "logical": 4101,
      "achieve": 4102,
      "videos": 4103,
      "filed": 4104,
      "advertising": 4105,
      "cise": 4106,
      "eat": 4107,
      "teach": 4108,
      "industrial": 4109,
      "asy": 4110,
      "ague": 4111,
      "outlook": 4112,
      "sometimes": 4113,
      "telephone": 4114,
      "reu": 4115,
      "lip": 4116,
      "whate": 4117,
      "goal": 4118,
      "span": 4119,
      "gg": 4120,
      "jap": 4121,
      "pil": 4122,
      "addresses": 4123,
      "objects": 4124,
      "shared": 4125,
      "responsible": 4126,
      "psy": 4127,
      "sally": 4128,
      "icon": 4129,
      "bever": 4130,
      "began": 4131,
      "pers": 4132,
      "spend": 4133,
      "featured": 4134,
      "tin": 4135,
      "allowed": 4136,
      "feeling": 4137,
      "definit": 4138,
      "extrem": 4139,
      "levitra": 4140,
      "bell": 4141,
      "arri": 4142,
      "itate": 4143,
      "rose": 4144,
      "dep": 4145,
      "commod": 4146,
      "dial": 4147,
      "contents": 4148,
      "seek": 4149,
      "reless": 4150,
      "positive": 4151,
      "concerns": 4152,
      "whatever": 4153,
      "illa": 4154,
      "specifi": 4155,
      "employ": 4156,
      "consumer": 4157,
      "853": 4158,
      "yo": 4159,
      "seven": 4160,
      "recei": 4161,
      "famili": 4162,
      "compulsory": 4163,
      "equal": 4164,
      "rob": 4165,
      "chin": 4166,
      "wants": 4167,
      "reput": 4168,
      "edge": 4169,
      "aylor": 4170,
      "upg": 4171,
      "fear": 4172,
      "glob": 4173,
      "european": 4174,
      "automatically": 4175,
      "acc": 4176,
      "compare": 4177,
      "generate": 4178,
      "mult": 4179,
      "wescapenumber": 4180,
      "stable": 4181,
      "poly": 4182,
      "opens": 4183,
      "parents": 4184,
      "gnupg": 4185,
      "hundreds": 4186,
      "hall": 4187,
      "java": 4188,
      "zen": 4189,
      "attract": 4190,
      "rec": 4191,
      "brought": 4192,
      "carry": 4193,
      "participants": 4194,
      "gory": 4195,
      "uate": 4196,
      "iced": 4197,
      "portland": 4198,
      "feet": 4199,
      "confidence": 4200,
      "presentation": 4201,
      "himself": 4202,
      "gary": 4203,
      "cot": 4204,
      "accu": 4205,
      "istic": 4206,
      "hotel": 4207,
      "background": 4208,
      "properties": 4209,
      "cisco": 4210,
      "rac": 4211,
      "zed": 4212,
      "editor": 4213,
      "sea": 4214,
      "hands": 4215,
      "appreciated": 4216,
      "consumers": 4217,
      "reuters": 4218,
      "ites": 4219,
      "pher": 4220,
      "mond": 4221,
      "dave": 4222,
      "lendec": 4223,
      "prescription": 4224,
      "earnings": 4225,
      "¹¤": 4226,
      "stral": 4227,
      "stats": 4228,
      "japan": 4229,
      "èç": 4230,
      "ises": 4231,
      "extended": 4232,
      "oted": 4233,
      "balance": 4234,
      "classes": 4235,
      "volumes": 4236,
      "solicitation": 4237,
      "dor": 4238,
      "daw": 4239,
      "oud": 4240,
      "cott": 4241,
      "poses": 4242,
      "bind": 4243,
      "judge": 4244,
      "element": 4245,
      "ebay": 4246,
      "familiar": 4247,
      "locate": 4248,
      "estate": 4249,
      "manner": 4250,
      "kers": 4251,
      "rx": 4252,
      "uid": 4253,
      "xgate": 4254,
      "alter": 4255,
      "beaut": 4256,
      "enronxgate": 4257,
      "minister": 4258,
      "flexi": 4259,
      "prefix": 4260,
      "sydney": 4261,
      "messaging": 4262,
      "minute": 4263,
      "nearly": 4264,
      "students": 4265,
      "sql": 4266,
      "beha": 4267,
      "mining": 4268,
      "dama": 4269,
      "category": 4270,
      "ied": 4271,
      "stack": 4272,
      "ctr": 4273,
      "exit": 4274,
      "curve": 4275,
      "sids": 4276,
      "weekend": 4277,
      "mrs": 4278,
      "bottom": 4279,
      "buddy": 4280,
      "illustrator": 4281,
      "escapenumberb": 4282,
      "watching": 4283,
      "treas": 4284,
      "holid": 4285,
      "straight": 4286,
      "military": 4287,
      "69": 4288,
      "tration": 4289,
      "\\\\\\\\": 4290,
      "jobs": 4291,
      "strategy": 4292,
      "ville": 4293,
      "quote": 4294,
      "fly": 4295,
      "jm": 4296,
      "ints": 4297,
      "ordered": 4298,
      "availability": 4299,
      "scheduled": 4300,
      "williams": 4301,
      "cele": 4302,
      "anc": 4303,
      "eli": 4304,
      "chat": 4305,
      "appoint": 4306,
      "audio": 4307,
      "till": 4308,
      "áï": 4309,
      "endif": 4310,
      "div": 4311,
      "cris": 4312,
      "flor": 4313,
      "pipe": 4314,
      "selection": 4315,
      "mous": 4316,
      "abor": 4317,
      "moder": 4318,
      "finding": 4319,
      "thomas": 4320,
      "cook": 4321,
      "guys": 4322,
      "preference": 4323,
      "austral": 4324,
      "switch": 4325,
      "vacan": 4326,
      "reduce": 4327,
      "ibm": 4328,
      "dau": 4329,
      "enable": 4330,
      "stin": 4331,
      "determin": 4332,
      "implemented": 4333,
      "bankruptcy": 4334,
      "vm": 4335,
      "revenue": 4336,
      "accuweather": 4337,
      "aus": 4338,
      "lack": 4339,
      "·½": 4340,
      "chem": 4341,
      "forget": 4342,
      "meg": 4343,
      "warner": 4344,
      "integration": 4345,
      "separate": 4346,
      "£©": 4347,
      "metal": 4348,
      "prest": 4349,
      "spescapenumber": 4350,
      "certainly": 4351,
      "nis": 4352,
      "coal": 4353,
      "ghter": 4354,
      "postal": 4355,
      "greater": 4356,
      "autodesk": 4357,
      "collection": 4358,
      "dark": 4359,
      "scheduling": 4360,
      "dam": 4361,
      "µã": 4362,
      "ilton": 4363,
      "0000": 4364,
      "willing": 4365,
      "brad": 4366,
      "discover": 4367,
      "jose": 4368,
      "coverage": 4369,
      "records": 4370,
      "picture": 4371,
      "oi": 4372,
      "wireless": 4373,
      "iring": 4374,
      "interp": 4375,
      "makefile": 4376,
      "installation": 4377,
      "candidates": 4378,
      "42": 4379,
      "58": 4380,
      "eight": 4381,
      "ftp": 4382,
      "git": 4383,
      "wholes": 4384,
      "iff": 4385,
      "college": 4386,
      "reasons": 4387,
      "nig": 4388,
      "sens": 4389,
      "lies": 4390,
      "produced": 4391,
      "increasing": 4392,
      "male": 4393,
      "fish": 4394,
      "thread": 4395,
      "vip": 4396,
      "patches": 4397,
      "operate": 4398,
      "british": 4399,
      "cil": 4400,
      "gage": 4401,
      "nut": 4402,
      "ÿÿ": 4403,
      "kept": 4404,
      "followed": 4405,
      "warr": 4406,
      "respond": 4407,
      "developed": 4408,
      "collect": 4409,
      "satisfied": 4410,
      "ao": 4411,
      "dun": 4412,
      "lc": 4413,
      "nich": 4414,
      "swi": 4415,
      "tam": 4416,
      "beat": 4417,
      "brain": 4418,
      "actions": 4419,
      "lllp": 4420,
      "reflect": 4421,
      "absolutely": 4422,
      "cro": 4423,
      "ubs": 4424,
      "dram": 4425,
      "settle": 4426,
      "competition": 4427,
      "recipi": 4428,
      "freed": 4429,
      "seg": 4430,
      "stated": 4431,
      "joe": 4432,
      "issued": 4433,
      "virus": 4434,
      "configuration": 4435,
      "dn": 4436,
      "token": 4437,
      "abbott": 4438,
      "trial": 4439,
      "guidelines": 4440,
      "instru": 4441,
      "ides": 4442,
      "wealth": 4443,
      "tive": 4444,
      "stress": 4445,
      "wrap": 4446,
      "biggest": 4447,
      "licenses": 4448,
      "circum": 4449,
      "lation": 4450,
      "invalid": 4451,
      "escapenumberk": 4452,
      "maps": 4453,
      "discussions": 4454,
      "ltd": 4455,
      "yro": 4456,
      "£¨": 4457,
      "ened": 4458,
      "tier": 4459,
      "listmaster": 4460,
      "compens": 4461,
      "delay": 4462,
      "explo": 4463,
      "requires": 4464,
      "individuals": 4465,
      "jr": 4466,
      "cher": 4467,
      "discovered": 4468,
      "requested": 4469,
      "controll": 4470,
      "faces": 4471,
      "igration": 4472,
      "mhl": 4473,
      "todo": 4474,
      "cow": 4475,
      "coding": 4476,
      "moz": 4477,
      "autocad": 4478,
      "compliance": 4479,
      "eating": 4480,
      "ºí": 4481,
      "julie": 4482,
      "mountain": 4483,
      "mate": 4484,
      "caro": 4485,
      "ini": 4486,
      "bow": 4487,
      "failure": 4488,
      "batch": 4489,
      "satisfact": 4490,
      "brazil": 4491,
      "receipt": 4492,
      "bound": 4493,
      "ename": 4494,
      "asking": 4495,
      "anned": 4496,
      "equip": 4497,
      "responsibility": 4498,
      "doubt": 4499,
      "electronic": 4500,
      "mhln": 4501,
      "fas": 4502,
      "±¾": 4503,
      "ani": 4504,
      "soma": 4505,
      "boston": 4506,
      "knows": 4507,
      "complex": 4508,
      "manufacturer": 4509,
      "67": 4510,
      "lict": 4511,
      "ferc": 4512,
      "liter": 4513,
      "representative": 4514,
      "browser": 4515,
      "believed": 4516,
      "established": 4517,
      "gro": 4518,
      "knight": 4519,
      "»®": 4520,
      "entre": 4521,
      "sets": 4522,
      "lyn": 4523,
      "moved": 4524,
      "worry": 4525,
      "diag": 4526,
      "cards": 4527,
      "themselves": 4528,
      "membership": 4529,
      "entered": 4530,
      "devices": 4531,
      "temper": 4532,
      "concern": 4533,
      "replica": 4534,
      "fw": 4535,
      "suf": 4536,
      "erson": 4537,
      "cents": 4538,
      "generated": 4539,
      "smart": 4540,
      "davis": 4541,
      "expert": 4542,
      "patients": 4543,
      "cancer": 4544,
      "tips": 4545,
      "raise": 4546,
      "visual": 4547,
      "merged": 4548,
      "expans": 4549,
      "filter": 4550,
      "description": 4551,
      "congrat": 4552,
      "bzr": 4553,
      "socket": 4554,
      "mood": 4555,
      "gob": 4556,
      "tested": 4557,
      "patents": 4558,
      "highest": 4559,
      "ticker": 4560,
      "bg": 4561,
      "pad": 4562,
      "sd": 4563,
      "chain": 4564,
      "usually": 4565,
      "sud": 4566,
      "wear": 4567,
      "crab": 4568,
      "relations": 4569,
      "surpr": 4570,
      "interesting": 4571,
      "manufacturers": 4572,
      "jeremy": 4573,
      "camer": 4574,
      "toward": 4575,
      "itions": 4576,
      "ament": 4577,
      "ulations": 4578,
      "cren": 4579,
      "stolen": 4580,
      "vote": 4581,
      "requests": 4582,
      "hescapenumber": 4583,
      "rent": 4584,
      "umb": 4585,
      "uran": 4586,
      "serve": 4587,
      "desire": 4588,
      "mainly": 4589,
      "dealer": 4590,
      "behavi": 4591,
      "hate": 4592,
      "·": 4593,
      "îï": 4594,
      "aci": 4595,
      "attle": 4596,
      "metze": 4597,
      "sleep": 4598,
      "definitely": 4599,
      "dramat": 4600,
      "nw": 4601,
      "êµ": 4602,
      "depos": 4603,
      "terror": 4604,
      "identify": 4605,
      "survi": 4606,
      "rule": 4607,
      "crypt": 4608,
      "numeric": 4609,
      "crenshaw": 4610,
      "dfs": 4611,
      "fetch": 4612,
      "href": 4613,
      "lets": 4614,
      "beck": 4615,
      "hosp": 4616,
      "raised": 4617,
      "parts": 4618,
      "debate": 4619,
      "images": 4620,
      "columns": 4621,
      "bers": 4622,
      "gri": 4623,
      "gers": 4624,
      "knew": 4625,
      "mut": 4626,
      "sac": 4627,
      "·¨": 4628,
      "confir": 4629,
      "extern": 4630,
      "notify": 4631,
      "listing": 4632,
      "premier": 4633,
      "bullish": 4634,
      "aches": 4635,
      "oct": 4636,
      "¾­": 4637,
      "îö": 4638,
      "decre": 4639,
      "deposit": 4640,
      "ensive": 4641,
      "binary": 4642,
      "profits": 4643,
      "obtained": 4644,
      "wholesale": 4645,
      "zescapenumber": 4646,
      "inches": 4647,
      "dynam": 4648,
      "weekly": 4649,
      "pending": 4650,
      "43": 4651,
      "Data": 4652,
      "ïµ": 4653,
      "erect": 4654,
      "mechan": 4655,
      "identified": 4656,
      "places": 4657,
      "suppliers": 4658,
      "pson": 4659,
      "ught": 4660,
      "xl": 4661,
      "mega": 4662,
      "adescapenumber": 4663,
      "abs": 4664,
      "ifications": 4665,
      "conflict": 4666,
      "remote": 4667,
      "valuable": 4668,
      "reached": 4669,
      "expansion": 4670,
      "elf": 4671,
      "bear": 4672,
      "promis": 4673,
      "bool": 4674,
      "shown": 4675,
      "supposed": 4676,
      "indeed": 4677,
      "purchasing": 4678,
      "clearly": 4679,
      "advisor": 4680,
      "attorney": 4681,
      "ea": 4682,
      "rc": 4683,
      "xana": 4684,
      "zes": 4685,
      "êõ": 4686,
      "shif": 4687,
      "leaving": 4688,
      "nature": 4689,
      "yout": 4690,
      "vegas": 4691,
      "intend": 4692,
      "wouldn": 4693,
      "overall": 4694,
      "trib": 4695,
      "wild": 4696,
      "utils": 4697,
      "hurry": 4698,
      "excellent": 4699,
      "das": 4700,
      "tk": 4701,
      "vlendec": 4702,
      "revis": 4703,
      "amy": 4704,
      "expo": 4705,
      "clint": 4706,
      "ured": 4707,
      "bench": 4708,
      "traders": 4709,
      "hills": 4710,
      "800": 4711,
      "rg": 4712,
      "river": 4713,
      "olution": 4714,
      "ntstatus": 4715,
      "elements": 4716,
      "direction": 4717,
      "jhbuild": 4718,
      "Gary": 4719,
      "Mich": 4720,
      "Scott": 4721,
      "anony": 4722,
      "sha": 4723,
      "resident": 4724,
      "logon": 4725,
      "mxo": 4726,
      "economic": 4727,
      "nat": 4728,
      "aska": 4729,
      "succeed": 4730,
      "confidentiality": 4731,
      "suspect": 4732,
      "aren": 4733,
      "cha": 4734,
      "tie": 4735,
      "tired": 4736,
      "oblig": 4737,
      "warm": 4738,
      "holding": 4739,
      "bigger": 4740,
      "analy": 4741,
      "thor": 4742,
      "reform": 4743,
      "asia": 4744,
      "conver": 4745,
      "diet": 4746,
      "southern": 4747,
      "adescapenumberbe": 4748,
      "acade": 4749,
      "omy": 4750,
      "sounds": 4751,
      "tmxo": 4752,
      "era": 4753,
      "inher": 4754,
      "escapenumberpills": 4755,
      "edt": 4756,
      "dog": 4757,
      "relev": 4758,
      "associate": 4759,
      "intellect": 4760,
      "bridge": 4761,
      "enh": 4762,
      "ila": 4763,
      "pair": 4764,
      "disease": 4765,
      "seeing": 4766,
      "paying": 4767,
      "motors": 4768,
      "delivered": 4769,
      "continued": 4770,
      "austin": 4771,
      "hospital": 4772,
      "fif": 4773,
      "gal": 4774,
      "iest": 4775,
      "jul": 4776,
      "lsa": 4777,
      "lag": 4778,
      "anna": 4779,
      "suff": 4780,
      "readers": 4781,
      "datase": 4782,
      "county": 4783,
      "instance": 4784,
      "attack": 4785,
      "purposes": 4786,
      "happens": 4787,
      "equival": 4788,
      "54": 4789,
      "Anal": 4790,
      "hum": 4791,
      "ln": 4792,
      "nab": 4793,
      "itz": 4794,
      "asset": 4795,
      "units": 4796,
      "mont": 4797,
      "solve": 4798,
      "registration": 4799,
      "radar": 4800,
      "negative": 4801,
      "kilos": 4802,
      "56": 4803,
      "aks": 4804,
      "dil": 4805,
      "àý": 4806,
      "teen": 4807,
      "guy": 4808,
      "fiel": 4809,
      "secured": 4810,
      "usion": 4811,
      "este": 4812,
      "subsid": 4813,
      "reader": 4814,
      "joint": 4815,
      "primary": 4816,
      "incredi": 4817,
      "associates": 4818,
      "promotions": 4819,
      "fyi": 4820,
      "parameter": 4821,
      "beyond": 4822,
      "husband": 4823,
      "87": 4824,
      "fell": 4825,
      "°¸": 4826,
      "utf": 4827,
      "anyway": 4828,
      "emon": 4829,
      "faq": 4830,
      "sony": 4831,
      "paris": 4832,
      "facts": 4833,
      "gather": 4834,
      "trader": 4835,
      "termine": 4836,
      "venture": 4837,
      "laugh": 4838,
      "replescapenumber": 4839,
      "äú": 4840,
      "ern": 4841,
      "escapenumberadobe": 4842,
      "ido": 4843,
      "idad": 4844,
      "serial": 4845,
      "creation": 4846,
      "dates": 4847,
      "skip": 4848,
      "distribute": 4849,
      "characters": 4850,
      "specifically": 4851,
      "59": 4852,
      "sis": 4853,
      "una": 4854,
      "plate": 4855,
      "couldn": 4856,
      "hib": 4857,
      "argv": 4858,
      "tempor": 4859,
      "skills": 4860,
      "¢": 4861,
      "prison": 4862,
      "sert": 4863,
      "disk": 4864,
      "sunshine": 4865,
      "susan": 4866,
      "Michael": 4867,
      "enhance": 4868,
      "chap": 4869,
      "meas": 4870,
      "diction": 4871,
      "dale": 4872,
      "labor": 4873,
      "intellectual": 4874,
      "cra": 4875,
      "lenders": 4876,
      "ality": 4877,
      "entries": 4878,
      "ulture": 4879,
      "genu": 4880,
      "boost": 4881,
      "killed": 4882,
      "disco": 4883,
      "showbiz": 4884,
      "gaz": 4885,
      "presented": 4886,
      "player": 4887,
      "tradition": 4888,
      "keeping": 4889,
      "standards": 4890,
      "circle": 4891,
      "kid": 4892,
      "¼¼": 4893,
      "consequ": 4894,
      "empt": 4895,
      "awarded": 4896,
      "spirit": 4897,
      "vd": 4898,
      "reve": 4899,
      "determine": 4900,
      "ifs": 4901,
      "owners": 4902,
      "ploy": 4903,
      "felt": 4904,
      "aid": 4905,
      "kit": 4906,
      "stic": 4907,
      "pool": 4908,
      "pointer": 4909,
      "shot": 4910,
      "csv": 4911,
      "resource": 4912,
      "expressed": 4913,
      "corresponding": 4914,
      "updates": 4915,
      "believes": 4916,
      "promoting": 4917,
      "daughter": 4918,
      "hp": 4919,
      "scale": 4920,
      "sey": 4921,
      "interactive": 4922,
      "bsd": 4923,
      "ishing": 4924,
      "merge": 4925,
      "traveling": 4926,
      "extremely": 4927,
      "sudden": 4928,
      "fred": 4929,
      "loy": 4930,
      "contr": 4931,
      "ami": 4932,
      "domin": 4933,
      "goto": 4934,
      "lake": 4935,
      "virgin": 4936,
      "society": 4937,
      "stinson": 4938,
      "anne": 4939,
      "deci": 4940,
      "neither": 4941,
      "ute": 4942,
      "excel": 4943,
      "aves": 4944,
      "race": 4945,
      "owned": 4946,
      "facility": 4947,
      "exploration": 4948,
      "tribune": 4949,
      "fn": 4950,
      "fing": 4951,
      "mberg": 4952,
      "stain": 4953,
      "delight": 4954,
      "rows": 4955,
      "throughout": 4956,
      "iii": 4957,
      "arguments": 4958,
      "promotion": 4959,
      "practice": 4960,
      "savings": 4961,
      "historical": 4962,
      "escapenumberx": 4963,
      "cold": 4964,
      "mack": 4965,
      "catch": 4966,
      "joining": 4967,
      "improved": 4968,
      "libsmb": 4969,
      "gid": 4970,
      "pdb": 4971,
      "winter": 4972,
      "ðð": 4973,
      "semin": 4974,
      "winners": 4975,
      "cera": 4976,
      "directors": 4977,
      "publisher": 4978,
      "300": 4979,
      "ey": 4980,
      "fc": 4981,
      "chart": 4982,
      "memo": 4983,
      "pec": 4984,
      "changing": 4985,
      "unders": 4986,
      "estimated": 4987,
      "employee": 4988,
      "blob": 4989,
      "mortgage": 4990,
      "nan": 4991,
      "rout": 4992,
      "lex": 4993,
      "deploy": 4994,
      "esty": 4995,
      "agency": 4996,
      "spent": 4997,
      "carbon": 4998,
      "remains": 4999,
      "pictures": 5000,
      "democratic": 5001,
      "exercise": 5002,
      "satisfaction": 5003,
      "zone": 5004,
      "edison": 5005,
      "hourahead": 5006,
      "suggested": 5007,
      "advisory": 5008,
      "angeles": 5009,
      "assume": 5010,
      "wol": 5011,
      "usual": 5012,
      "obama": 5013,
      "patrick": 5014,
      "gains": 5015,
      "applying": 5016,
      "innovation": 5017,
      "rober": 5018,
      "accounts": 5019,
      "aking": 5020,
      "dealt": 5021,
      "burg": 5022,
      "detected": 5023,
      "gp": 5024,
      "jsp": 5025,
      "ende": 5026,
      "ativ": 5027,
      "query": 5028,
      "compat": 5029,
      "mitted": 5030,
      "techni": 5031,
      "processed": 5032,
      "learning": 5033,
      "exists": 5034,
      "promise": 5035,
      "66": 5036,
      "mand": 5037,
      "nine": 5038,
      "rank": 5039,
      "ws": 5040,
      "sher": 5041,
      "outstanding": 5042,
      "tony": 5043,
      "seemed": 5044,
      "baby": 5045,
      "accurate": 5046,
      "conduct": 5047,
      "blow": 5048,
      "lang": 5049,
      "uer": 5050,
      "itation": 5051,
      "convert": 5052,
      "trend": 5053,
      "elling": 5054,
      "lett": 5055,
      "backend": 5056,
      "ºî": 5057,
      "theft": 5058,
      "meant": 5059,
      "acle": 5060,
      "iful": 5061,
      "clust": 5062,
      "parsing": 5063,
      "presents": 5064,
      "trip": 5065,
      "waste": 5066,
      "assemb": 5067,
      "sportsline": 5068,
      "axis": 5069,
      "copies": 5070,
      "immigration": 5071,
      "entially": 5072,
      "sponsored": 5073,
      "warrant": 5074,
      "dp": 5075,
      "ances": 5076,
      "ored": 5077,
      "ested": 5078,
      "printer": 5079,
      "ques": 5080,
      "plants": 5081,
      "afra": 5082,
      "deser": 5083,
      "participate": 5084,
      "languages": 5085,
      "calculations": 5086,
      "equipment": 5087,
      "relevant": 5088,
      "fda": 5089,
      "bei": 5090,
      "wasn": 5091,
      "cker": 5092,
      "cates": 5093,
      "writer": 5094,
      "oxford": 5095,
      "medicine": 5096,
      "nav": 5097,
      "sph": 5098,
      "tual": 5099,
      "vy": 5100,
      "sta": 5101,
      "apparent": 5102,
      "weaver": 5103,
      "stephen": 5104,
      "sweet": 5105,
      "taylor": 5106,
      "¶¯": 5107,
      "attr": 5108,
      "qualify": 5109,
      "advise": 5110,
      "critical": 5111,
      "openssl": 5112,
      "australia": 5113,
      "hs": 5114,
      "hack": 5115,
      "md": 5116,
      "depression": 5117,
      "terri": 5118,
      "servers": 5119,
      "audit": 5120,
      "blank": 5121,
      "distributed": 5122,
      "spokes": 5123,
      "russi": 5124,
      "clinton": 5125,
      "pure": 5126,
      "song": 5127,
      "eric": 5128,
      "oft": 5129,
      "misc": 5130,
      "icious": 5131,
      "lucky": 5132,
      "affordable": 5133,
      "eps": 5134,
      "capt": 5135,
      "acts": 5136,
      "attacks": 5137,
      "voip": 5138,
      "planet": 5139,
      "constitut": 5140,
      "diego": 5141,
      "recovery": 5142,
      "enlargement": 5143,
      "lisa": 5144,
      "oms": 5145,
      "lives": 5146,
      "apa": 5147,
      "mostly": 5148,
      "lawy": 5149,
      "organiz": 5150,
      "thoughts": 5151,
      "cultur": 5152,
      "spoke": 5153,
      "happened": 5154,
      "computron": 5155,
      "quiet": 5156,
      "gonz": 5157,
      "depth": 5158,
      "41": 5159,
      "52": 5160,
      "bing": 5161,
      "hank": 5162,
      "yescapenumber": 5163,
      "unfortunately": 5164,
      "lied": 5165,
      "2003": 5166,
      "audi": 5167,
      "signal": 5168,
      "daemon": 5169,
      "possibly": 5170,
      "expects": 5171,
      "intellig": 5172,
      "aeg": 5173,
      "fro": 5174,
      "recru": 5175,
      "roof": 5176,
      "prove": 5177,
      "igation": 5178,
      "notification": 5179,
      "vict": 5180,
      "intern": 5181,
      "preced": 5182,
      "subscribers": 5183,
      "participation": 5184,
      "preferred": 5185,
      "approximately": 5186,
      "exposure": 5187,
      "berry": 5188,
      "dell": 5189,
      "hang": 5190,
      "lam": 5191,
      "pag": 5192,
      "inclus": 5193,
      "rell": 5194,
      "rewards": 5195,
      "stick": 5196,
      "mathe": 5197,
      "admin": 5198,
      "convers": 5199,
      "modif": 5200,
      "fake": 5201,
      "french": 5202,
      "virtual": 5203,
      "allowing": 5204,
      "engineering": 5205,
      "published": 5206,
      "bloo": 5207,
      "dl": 5208,
      "pun": 5209,
      "proven": 5210,
      "prescapenumber": 5211,
      "iza": 5212,
      "destroy": 5213,
      "priority": 5214,
      "smooth": 5215,
      "square": 5216,
      "substanti": 5217,
      "recipient": 5218,
      "genuine": 5219,
      "pha": 5220,
      "sight": 5221,
      "task": 5222,
      "ðâ": 5223,
      "ural": 5224,
      "urch": 5225,
      "mental": 5226,
      "pra": 5227,
      "plenty": 5228,
      "vibr": 5229,
      "solely": 5230,
      "agreements": 5231,
      "miles": 5232,
      "exclusive": 5233,
      "ook": 5234,
      "magaz": 5235,
      "usb": 5236,
      "lich": 5237,
      "lands": 5238,
      "officers": 5239,
      "integer": 5240,
      "nuclear": 5241,
      "reputation": 5242,
      "aegis": 5243,
      "fid": 5244,
      "gard": 5245,
      "enum": 5246,
      "planned": 5247,
      "parser": 5248,
      "projections": 5249,
      "truth": 5250,
      "nasa": 5251,
      "plugin": 5252,
      "rw": 5253,
      "rou": 5254,
      "sue": 5255,
      "ignore": 5256,
      "pharmacies": 5257,
      "reasonable": 5258,
      "remaining": 5259,
      "particularly": 5260,
      "decide": 5261,
      "bj": 5262,
      "bay": 5263,
      "kel": 5264,
      "nar": 5265,
      "ider": 5266,
      "telev": 5267,
      "laws": 5268,
      "licensing": 5269,
      "francisco": 5270,
      "experts": 5271,
      "maximum": 5272,
      "movie": 5273,
      "gobject": 5274,
      "perman": 5275,
      "dumm": 5276,
      "compre": 5277,
      "fog": 5278,
      "investments": 5279,
      "estimate": 5280,
      "pidl": 5281,
      "fields": 5282,
      "aur": 5283,
      "ander": 5284,
      "bra": 5285,
      "bomb": 5286,
      "funding": 5287,
      "privile": 5288,
      "transferred": 5289,
      "dropped": 5290,
      "developers": 5291,
      "protocol": 5292,
      "itude": 5293,
      "mens": 5294,
      "throw": 5295,
      "reject": 5296,
      "recover": 5297,
      "aces": 5298,
      "perm": 5299,
      "trail": 5300,
      "civil": 5301,
      "inten": 5302,
      "forms": 5303,
      "howstuff": 5304,
      "filing": 5305,
      "trusted": 5306,
      "fellow": 5307,
      "rapid": 5308,
      "cifs": 5309,
      "drew": 5310,
      "anim": 5311,
      "sely": 5312,
      "desp": 5313,
      "justice": 5314,
      "opening": 5315,
      "declar": 5316,
      "analysts": 5317,
      "confirmation": 5318,
      "congratulations": 5319,
      "discovery": 5320,
      "howstuffworks": 5321,
      "kno": 5322,
      "éï": 5323,
      "ñð": 5324,
      "illary": 5325,
      "invent": 5326,
      "acquire": 5327,
      "preferences": 5328,
      "extreme": 5329,
      "celebr": 5330,
      "anonymous": 5331,
      "geo": 5332,
      "shaescapenumber": 5333,
      "dump": 5334,
      "releases": 5335,
      "provider": 5336,
      "specified": 5337,
      "institute": 5338,
      "construction": 5339,
      "nabble": 5340,
      "modify": 5341,
      "bloomberg": 5342,
      "dummies": 5343,
      "enge": 5344,
      "prob": 5345,
      "lying": 5346,
      "avenue": 5347,
      "checked": 5348,
      "commitment": 5349,
      "commodity": 5350,
      "suffer": 5351,
      "hid": 5352,
      "nort": 5353,
      "wc": 5354,
      "izes": 5355,
      "club": 5356,
      "closure": 5357,
      "players": 5358,
      "appeared": 5359,
      "dawson": 5360,
      "roberts": 5361,
      "eol": 5362,
      "hence": 5363,
      "lk": 5364,
      "ua": 5365,
      "issa": 5366,
      "towards": 5367,
      "beach": 5368,
      "merch": 5369,
      "talks": 5370,
      "suppose": 5371,
      "opened": 5372,
      "burn": 5373,
      "truly": 5374,
      "discrete": 5375,
      "hiv": 5376,
      "îä": 5377,
      "öîö": 5378,
      "amed": 5379,
      "ounts": 5380,
      "assess": 5381,
      "twenty": 5382,
      "whom": 5383,
      "connected": 5384,
      "correctly": 5385,
      "treasury": 5386,
      "92": 5387,
      "ils": 5388,
      "duke": 5389,
      "disclaim": 5390,
      "realize": 5391,
      "administrator": 5392,
      "vtable": 5393,
      "yan": 5394,
      "demon": 5395,
      "ifer": 5396,
      "hey": 5397,
      "bru": 5398,
      "phase": 5399,
      "brother": 5400,
      "acceptance": 5401,
      "compiler": 5402,
      "accuracy": 5403,
      "preparation": 5404,
      "uranium": 5405,
      "68": 5406,
      "bn": 5407,
      "tcp": 5408,
      "tood": 5409,
      "arily": 5410,
      "superi": 5411,
      "matt": 5412,
      "continues": 5413,
      "èçºî": 5414,
      "suffici": 5415,
      "inf": 5416,
      "influ": 5417,
      "coder": 5418,
      "prospect": 5419,
      "trick": 5420,
      "moore": 5421,
      "ards": 5422,
      "ronnie": 5423,
      "intent": 5424,
      "highlight": 5425,
      "hoodia": 5426,
      "economy": 5427,
      "exception": 5428,
      "royal": 5429,
      "hed": 5430,
      "tight": 5431,
      "atively": 5432,
      "weak": 5433,
      "valium": 5434,
      "extend": 5435,
      "vars": 5436,
      "authority": 5437,
      "computers": 5438,
      "reduction": 5439,
      "wondering": 5440,
      "snip": 5441,
      "dinner": 5442,
      "ancillary": 5443,
      "scal": 5444,
      "uri": 5445,
      "args": 5446,
      "std": 5447,
      "ador": 5448,
      "ride": 5449,
      "proud": 5450,
      "cient": 5451,
      "subset": 5452,
      "healthy": 5453,
      "bonus": 5454,
      "aspect": 5455,
      "exciting": 5456,
      "citiz": 5457,
      "variances": 5458,
      "external": 5459,
      "motorsports": 5460,
      "ndr": 5461,
      "cole": 5462,
      "hop": 5463,
      "faster": 5464,
      "turning": 5465,
      "storm": 5466,
      "meetings": 5467,
      "explicit": 5468,
      "equivalent": 5469,
      "kdawson": 5470,
      "lf": 5471,
      "asnescapenumber": 5472,
      "lover": 5473,
      "unsigned": 5474,
      "emp": 5475,
      "answers": 5476,
      "logist": 5477,
      "ordering": 5478,
      "sender": 5479,
      "supported": 5480,
      "glass": 5481,
      "motion": 5482,
      "sexual": 5483,
      "400": 5484,
      "62": 5485,
      "cooper": 5486,
      "unclaimed": 5487,
      "tered": 5488,
      "sak": 5489,
      "newest": 5490,
      "upper": 5491,
      "networks": 5492,
      "providers": 5493,
      "opinions": 5494,
      "temperature": 5495,
      "understood": 5496,
      "tot": 5497,
      "neal": 5498,
      "usd": 5499,
      "concept": 5500,
      "liber": 5501,
      "impress": 5502,
      "inet": 5503,
      "feb": 5504,
      "showers": 5505,
      "wheel": 5506,
      "syntax": 5507,
      "suitable": 5508,
      "democrats": 5509,
      "compreh": 5510,
      "belong": 5511,
      "ief": 5512,
      "ui": 5513,
      "itative": 5514,
      "ultimate": 5515,
      "patient": 5516,
      "indian": 5517,
      "philip": 5518,
      "investigation": 5519,
      "stances": 5520,
      "legislation": 5521,
      "untu": 5522,
      "score": 5523,
      "bles": 5524,
      "revolution": 5525,
      "older": 5526,
      "xdgmime": 5527,
      "periods": 5528,
      "superior": 5529,
      "aper": 5530,
      "somewhere": 5531,
      "samples": 5532,
      "label": 5533,
      "dependencies": 5534,
      "affiliate": 5535,
      "paso": 5536,
      "gle": 5537,
      "encrypt": 5538,
      "imited": 5539,
      "apt": 5540,
      "helped": 5541,
      "seeking": 5542,
      "learned": 5543,
      "emerging": 5544,
      "faithfully": 5545,
      "cup": 5546,
      "fh": 5547,
      "jam": 5548,
      "mount": 5549,
      "seq": 5550,
      "iran": 5551,
      "tical": 5552,
      "helpful": 5553,
      "ideal": 5554,
      "banks": 5555,
      "dollar": 5556,
      "critic": 5557,
      "flights": 5558,
      "mouse": 5559,
      "encourage": 5560,
      "bought": 5561,
      "jay": 5562,
      "enues": 5563,
      "cape": 5564,
      "dee": 5565,
      "mexico": 5566,
      "construct": 5567,
      "weg": 5568,
      "ulty": 5569,
      "peach": 5570,
      "agenda": 5571,
      "subsequ": 5572,
      "testim": 5573,
      "basically": 5574,
      "indicated": 5575,
      "silver": 5576,
      "predict": 5577,
      "thompson": 5578,
      "xls": 5579,
      "saved": 5580,
      "somebody": 5581,
      "flat": 5582,
      "michelle": 5583,
      "dreamweaver": 5584,
      "vacancy": 5585,
      "despite": 5586,
      "js": 5587,
      "mun": 5588,
      "êç": 5589,
      "assure": 5590,
      "forest": 5591,
      "lov": 5592,
      "trace": 5593,
      "anybody": 5594,
      "eva": 5595,
      "viewed": 5596,
      "trips": 5597,
      "celer": 5598,
      "respective": 5599,
      "criteria": 5600,
      "announcement": 5601,
      "assumptions": 5602,
      "flexible": 5603,
      "florida": 5604,
      "subsidi": 5605,
      "78": 5606,
      "cens": 5607,
      "gig": 5608,
      "sess": 5609,
      "²¿": 5610,
      "escapenumberam": 5611,
      "eliza": 5612,
      "iled": 5613,
      "verify": 5614,
      "urgent": 5615,
      "spie": 5616,
      "pmi": 5617,
      "pub": 5618,
      "operator": 5619,
      "playing": 5620,
      "possibility": 5621,
      "vnn": 5622,
      "controls": 5623,
      "suggestion": 5624,
      "concerned": 5625,
      "cloud": 5626,
      "cruise": 5627,
      "attribute": 5628,
      "confirmed": 5629,
      "quot": 5630,
      "starts": 5631,
      "giant": 5632,
      "gotten": 5633,
      "facilities": 5634,
      "tickets": 5635,
      "filled": 5636,
      "publication": 5637,
      "industrious": 5638,
      "relationship": 5639,
      "modern": 5640,
      "virginia": 5641,
      "aqu": 5642,
      "fla": 5643,
      "½£": 5644,
      "òô": 5645,
      "enab": 5646,
      "inbuf": 5647,
      "propri": 5648,
      "accompl": 5649,
      "heat": 5650,
      "surprise": 5651,
      "definition": 5652,
      "answered": 5653,
      "ubuntu": 5654,
      "epp": 5655,
      "rnorm": 5656,
      "ôú": 5657,
      "chip": 5658,
      "secon": 5659,
      "tap": 5660,
      "sapi": 5661,
      "timeout": 5662,
      "informed": 5663,
      "variety": 5664,
      "regulatory": 5665,
      "painting": 5666,
      "folder": 5667,
      "gallery": 5668,
      "beautiful": 5669,
      "disclaimer": 5670,
      "£­": 5671,
      "alloc": 5672,
      "brands": 5673,
      "bold": 5674,
      "aug": 5675,
      "crack": 5676,
      "specify": 5677,
      "bios": 5678,
      "banking": 5679,
      "warnings": 5680,
      "affiliates": 5681,
      "parameters": 5682,
      "holidays": 5683,
      "culture": 5684,
      "ience": 5685,
      "island": 5686,
      "beta": 5687,
      "noticed": 5688,
      "elyn": 5689,
      "topics": 5690,
      "extent": 5691,
      "revenues": 5692,
      "mitt": 5693,
      "showed": 5694,
      "supporting": 5695,
      "appeal": 5696,
      "deliveries": 5697,
      "girls": 5698,
      "behavior": 5699,
      "aint": 5700,
      "vor": 5701,
      "chron": 5702,
      "makers": 5703,
      "confer": 5704,
      "victor": 5705,
      "signs": 5706,
      "minimum": 5707,
      "sitara": 5708,
      "entials": 5709,
      "accepted": 5710,
      "challenge": 5711,
      "circumstances": 5712,
      "dramatically": 5713,
      "fb": 5714,
      "native": 5715,
      "ñµ": 5716,
      "asks": 5717,
      "nobody": 5718,
      "proc": 5719,
      "conserv": 5720,
      "abilities": 5721,
      "charged": 5722,
      "volat": 5723,
      "friendly": 5724,
      "flowed": 5725,
      "consistent": 5726,
      "psycho": 5727,
      "63": 5728,
      "sport": 5729,
      "orient": 5730,
      "elimin": 5731,
      "cancel": 5732,
      "bytes": 5733,
      "articles": 5734,
      "gression": 5735,
      "laun": 5736,
      "properly": 5737,
      "recommended": 5738,
      "christo": 5739,
      "budget": 5740,
      "solaris": 5741,
      "beverly": 5742,
      "Analyst": 5743,
      "bright": 5744,
      "iro": 5745,
      "ining": 5746,
      "traff": 5747,
      "gray": 5748,
      "producing": 5749,
      "paths": 5750,
      "stopped": 5751,
      "fortune": 5752,
      "rename": 5753,
      "secrets": 5754,
      "Thank": 5755,
      "dall": 5756,
      "epmi": 5757,
      "morgan": 5758,
      "»°": 5759,
      "esh": 5760,
      "ento": 5761,
      "elo": 5762,
      "byte": 5763,
      "mann": 5764,
      "views": 5765,
      "greet": 5766,
      "summit": 5767,
      "climb": 5768,
      "smbescapenumber": 5769,
      "plane": 5770,
      "announces": 5771,
      "tells": 5772,
      "americans": 5773,
      "commerce": 5774,
      "resolution": 5775,
      "lady": 5776,
      "obviously": 5777,
      "dangerous": 5778,
      "audience": 5779,
      "television": 5780,
      "seconds": 5781,
      "cpan": 5782,
      "dance": 5783,
      "icated": 5784,
      "kat": 5785,
      "sustain": 5786,
      "abc": 5787,
      "peace": 5788,
      "compile": 5789,
      "crimin": 5790,
      "introduce": 5791,
      "introducing": 5792,
      "derivatives": 5793,
      "empty": 5794,
      "elizabeth": 5795,
      "lescapenumber": 5796,
      "tm": 5797,
      "encing": 5798,
      "insider": 5799,
      "ario": 5800,
      "iling": 5801,
      "noted": 5802,
      "divers": 5803,
      "laura": 5804,
      "dont": 5805,
      "varescapenumber": 5806,
      "processes": 5807,
      "latex": 5808,
      "personalized": 5809,
      "hyper": 5810,
      "described": 5811,
      "introduction": 5812,
      "strategies": 5813,
      "shift": 5814,
      "gcc": 5815,
      "oescapenumber": 5816,
      "opr": 5817,
      "escapenumberspeedy": 5818,
      "alpha": 5819,
      "lean": 5820,
      "forum": 5821,
      "ados": 5822,
      "riage": 5823,
      "goals": 5824,
      "endor": 5825,
      "phys": 5826,
      "corre": 5827,
      "scripts": 5828,
      "merid": 5829,
      "wysak": 5830,
      "îïáï": 5831,
      "revised": 5832,
      "incredible": 5833,
      "bol": 5834,
      "ema": 5835,
      "wb": 5836,
      "ervice": 5837,
      "eless": 5838,
      "clin": 5839,
      "ción": 5840,
      "film": 5841,
      "forwarding": 5842,
      "runs": 5843,
      "installing": 5844,
      "resulting": 5845,
      "harris": 5846,
      "safest": 5847,
      "shareholder": 5848,
      "94": 5849,
      "gc": 5850,
      "ening": 5851,
      "anthon": 5852,
      "excess": 5853,
      "westdesk": 5854,
      "gssapi": 5855,
      "statistical": 5856,
      "mirror": 5857,
      "certified": 5858,
      "eq": 5859,
      "jump": 5860,
      "kir": 5861,
      "rit": 5862,
      "wl": 5863,
      "èý": 5864,
      "ares": 5865,
      "acceler": 5866,
      "login": 5867,
      "pays": 5868,
      "closing": 5869,
      "pointed": 5870,
      "medication": 5871,
      "visiting": 5872,
      "leads": 5873,
      "negotiations": 5874,
      "variance": 5875,
      "norton": 5876,
      "anthony": 5877,
      "eve": 5878,
      "lme": 5879,
      "rul": 5880,
      "slight": 5881,
      "thir": 5882,
      "atl": 5883,
      "alli": 5884,
      "chvc": 5885,
      "iones": 5886,
      "busy": 5887,
      "transform": 5888,
      "cried": 5889,
      "driver": 5890,
      "bibli": 5891,
      "occas": 5892,
      "picked": 5893,
      "competitive": 5894,
      "copper": 5895,
      "chinese": 5896,
      "gonzales": 5897,
      "ather": 5898,
      "kim": 5899,
      "rea": 5900,
      "tow": 5901,
      "compared": 5902,
      "enrononline": 5903,
      "typ": 5904,
      "fileescapenumber": 5905,
      "handling": 5906,
      "reserve": 5907,
      "successfully": 5908,
      "christian": 5909,
      "heavy": 5910,
      "frequency": 5911,
      "component": 5912,
      "apparently": 5913,
      "caused": 5914,
      "thunder": 5915,
      "infra": 5916,
      "ats": 5917,
      "iris": 5918,
      "portion": 5919,
      "guest": 5920,
      "cheaper": 5921,
      "aescapenumberknight": 5922,
      "xxx": 5923,
      "photos": 5924,
      "affiliated": 5925,
      "secretary": 5926,
      "vehicle": 5927,
      "lux": 5928,
      "inqu": 5929,
      "anxi": 5930,
      "metri": 5931,
      "sap": 5932,
      "evidence": 5933,
      "ension": 5934,
      "folks": 5935,
      "pattern": 5936,
      "interests": 5937,
      "organic": 5938,
      "eventlog": 5939,
      "prescriptions": 5940,
      "schema": 5941,
      "freedom": 5942,
      "oprah": 5943,
      "ov": 5944,
      "tion": 5945,
      "óê": 5946,
      "thy": 5947,
      "exclu": 5948,
      "resist": 5949,
      "fees": 5950,
      "offices": 5951,
      "charles": 5952,
      "purchased": 5953,
      "trademarks": 5954,
      "bobj": 5955,
      "pacific": 5956,
      "duncan": 5957,
      "bart": 5958,
      "hers": 5959,
      "pto": 5960,
      "tis": 5961,
      "stake": 5962,
      "cox": 5963,
      "wires": 5964,
      "graf": 5965,
      "jean": 5966,
      "challeng": 5967,
      "conversation": 5968,
      "51": 5969,
      "õæ": 5970,
      "roken": 5971,
      "shad": 5972,
      "hair": 5973,
      "tec": 5974,
      "howard": 5975,
      "lax": 5976,
      "linear": 5977,
      "blvd": 5978,
      "identity": 5979,
      "generally": 5980,
      "putting": 5981,
      "salary": 5982,
      "satell": 5983,
      "suspend": 5984,
      "environmental": 5985,
      "combined": 5986,
      "publications": 5987,
      "dictionary": 5988,
      "permanent": 5989,
      "ez": 5990,
      "iat": 5991,
      "jes": 5992,
      "nn": 5993,
      "sick": 5994,
      "sque": 5995,
      "åà": 5996,
      "òª": 5997,
      "edwards": 5998,
      "mainten": 5999,
      "subobj": 6000,
      "ulative": 6001,
      "grat": 6002,
      "strange": 6003,
      "england": 6004,
      "hydro": 6005,
      "crisis": 6006,
      "gel": 6007,
      "padding": 6008,
      "uck": 6009,
      "ëù": 6010,
      "îª": 6011,
      "incent": 6012,
      "escapenumberj": 6013,
      "retain": 6014,
      "alan": 6015,
      "magn": 6016,
      "unlock": 6017,
      "conce": 6018,
      "tras": 6019,
      "division": 6020,
      "sible": 6021,
      "visa": 6022,
      "showing": 6023,
      "packaging": 6024,
      "casino": 6025,
      "tracker": 6026,
      "pieces": 6027,
      "jeffrey": 6028,
      "massa": 6029,
      "anticipated": 6030,
      "cof": 6031,
      "rege": 6032,
      "cock": 6033,
      "allen": 6034,
      "agon": 6035,
      "evelyn": 6036,
      "overview": 6037,
      "speaking": 6038,
      "username": 6039,
      "holds": 6040,
      "hotmail": 6041,
      "hlberg": 6042,
      "responsibilities": 6043,
      "entirely": 6044,
      "comparison": 6045,
      "convenient": 6046,
      "chemical": 6047,
      "metals": 6048,
      "eo": 6049,
      "neigh": 6050,
      "abie": 6051,
      "reality": 6052,
      "barry": 6053,
      "graphy": 6054,
      "domains": 6055,
      "executed": 6056,
      "materials": 6057,
      "logos": 6058,
      "ement": 6059,
      "vig": 6060,
      "wescapenumbert": 6061,
      "äê": 6062,
      "ria": 6063,
      "igu": 6064,
      "ials": 6065,
      "bern": 6066,
      "stood": 6067,
      "junk": 6068,
      "greatly": 6069,
      "networking": 6070,
      "airlines": 6071,
      "leaders": 6072,
      "ordinary": 6073,
      "murder": 6074,
      "movies": 6075,
      "camera": 6076,
      "dere": 6077,
      "ando": 6078,
      "champ": 6079,
      "metr": 6080,
      "wiki": 6081,
      "impossible": 6082,
      "dict": 6083,
      "herbal": 6084,
      "runtime": 6085,
      "carefully": 6086,
      "trees": 6087,
      "labels": 6088,
      "sync": 6089,
      "appearance": 6090,
      "prepare": 6091,
      "convenience": 6092,
      "600": 6093,
      "kescapenumber": 6094,
      "alaska": 6095,
      "ione": 6096,
      "codes": 6097,
      "memor": 6098,
      "mention": 6099,
      "pleas": 6100,
      "missed": 6101,
      "managed": 6102,
      "reserves": 6103,
      "repeated": 6104,
      "nigeria": 6105,
      "compensation": 6106,
      "explode": 6107,
      "shape": 6108,
      "dataset": 6109,
      "encrypted": 6110,
      "64": 6111,
      "tan": 6112,
      "forth": 6113,
      "igen": 6114,
      "mydata": 6115,
      "expire": 6116,
      "cars": 6117,
      "basin": 6118,
      "filename": 6119,
      "paypal": 6120,
      "thinks": 6121,
      "larger": 6122,
      "scope": 6123,
      "numerous": 6124,
      "strictly": 6125,
      "biblio": 6126,
      "avi": 6127,
      "astr": 6128,
      "mn": 6129,
      "oli": 6130,
      "vill": 6131,
      "aling": 6132,
      "addr": 6133,
      "rival": 6134,
      "nets": 6135,
      "posix": 6136,
      "aps": 6137,
      "aud": 6138,
      "achiev": 6139,
      "stein": 6140,
      "miller": 6141,
      "kins": 6142,
      "crabtree": 6143,
      "mathemat": 6144,
      "rum": 6145,
      "disput": 6146,
      "minor": 6147,
      "americas": 6148,
      "shopping": 6149,
      "bugs": 6150,
      "travelers": 6151,
      "papers": 6152,
      "titles": 6153,
      "favorite": 6154,
      "traditional": 6155,
      "eppg": 6156,
      "kate": 6157,
      "tts": 6158,
      "ïö": 6159,
      "itect": 6160,
      "mast": 6161,
      "locations": 6162,
      "comfort": 6163,
      "trou": 6164,
      "sahlberg": 6165,
      "upcoming": 6166,
      "tip": 6167,
      "valley": 6168,
      "winner": 6169,
      "colon": 6170,
      "loaded": 6171,
      "boxes": 6172,
      "joined": 6173,
      "sheets": 6174,
      "birth": 6175,
      "dynamic": 6176,
      "cflags": 6177,
      "alle": 6178,
      "arial": 6179,
      "degre": 6180,
      "forces": 6181,
      "comfor": 6182,
      "permission": 6183,
      "aggress": 6184,
      "vii": 6185,
      "intercept": 6186,
      "columb": 6187,
      "backup": 6188,
      "stored": 6189,
      "majority": 6190,
      "replied": 6191,
      "promotional": 6192,
      "discreet": 6193,
      "ejs": 6194,
      "chapter": 6195,
      "comprehensive": 6196,
      "bf": 6197,
      "gd": 6198,
      "gay": 6199,
      "hh": 6200,
      "ime": 6201,
      "jet": 6202,
      "uations": 6203,
      "posite": 6204,
      "visits": 6205,
      "century": 6206,
      "grep": 6207,
      "simon": 6208,
      "architect": 6209,
      "eventually": 6210,
      "fourth": 6211,
      "hesitate": 6212,
      "jelmer": 6213,
      "bic": 6214,
      "bner": 6215,
      "dns": 6216,
      "gno": 6217,
      "pine": 6218,
      "éè": 6219,
      "thai": 6220,
      "steven": 6221,
      "safer": 6222,
      "ravi": 6223,
      "topcoder": 6224,
      "bless": 6225,
      "ffff": 6226,
      "morris": 6227,
      "clause": 6228,
      "johnson": 6229,
      "trademark": 6230,
      "wonderful": 6231,
      "melissa": 6232,
      "ratings": 6233,
      "maintenance": 6234,
      "wick": 6235,
      "regression": 6236,
      "adam": 6237,
      "prohib": 6238,
      "console": 6239,
      "expression": 6240,
      "strings": 6241,
      "catal": 6242,
      "skin": 6243,
      "gency": 6244,
      "reduced": 6245,
      "combination": 6246,
      "apolog": 6247,
      "procedure": 6248,
      "assembly": 6249,
      "infrastructure": 6250,
      "degrees": 6251,
      "blin": 6252,
      "bird": 6253,
      "cj": 6254,
      "kick": 6255,
      "pw": 6256,
      "pic": 6257,
      "escapenumberrd": 6258,
      "arte": 6259,
      "stro": 6260,
      "assurance": 6261,
      "prince": 6262,
      "artist": 6263,
      "clock": 6264,
      "distri": 6265,
      "seller": 6266,
      "quickbooks": 6267,
      "bonds": 6268,
      "concerning": 6269,
      "contribute": 6270,
      "gbp": 6271,
      "submitted": 6272,
      "supplies": 6273,
      "recommendations": 6274,
      "strategic": 6275,
      "diagno": 6276,
      "sufficient": 6277,
      "fers": 6278,
      "lord": 6279,
      "pjm": 6280,
      "rare": 6281,
      "isra": 6282,
      "alleg": 6283,
      "nom": 6284,
      "igence": 6285,
      "withdraw": 6286,
      "fool": 6287,
      "finished": 6288,
      "paragr": 6289,
      "subscriber": 6290,
      "shouldn": 6291,
      "passion": 6292,
      "certifi": 6293,
      "lifesty": 6294,
      "principal": 6295,
      "dfsg": 6296,
      "½£½£": 6297,
      "traffic": 6298,
      "gil": 6299,
      "forced": 6300,
      "conclus": 6301,
      "shoo": 6302,
      "peak": 6303,
      "auction": 6304,
      "solic": 6305,
      "timing": 6306,
      "functionality": 6307,
      "loading": 6308,
      "mcca": 6309,
      "fundament": 6310,
      "reducing": 6311,
      "assuming": 6312,
      "christopher": 6313,
      "paragraph": 6314,
      "ais": 6315,
      "bak": 6316,
      "gss": 6317,
      "qescapenumber": 6318,
      "vit": 6319,
      "ºï": 6320,
      "isions": 6321,
      "curves": 6322,
      "returning": 6323,
      "france": 6324,
      "missions": 6325,
      "committed": 6326,
      "colleague": 6327,
      "destru": 6328,
      "extension": 6329,
      "academy": 6330,
      "sphere": 6331,
      "organizations": 6332,
      "fare": 6333,
      "thick": 6334,
      "infer": 6335,
      "tol": 6336,
      "seb": 6337,
      "como": 6338,
      "homes": 6339,
      "divid": 6340,
      "strug": 6341,
      "wins": 6342,
      "werr": 6343,
      "foreach": 6344,
      "northern": 6345,
      "studies": 6346,
      "bills": 6347,
      "holder": 6348,
      "menu": 6349,
      "famil": 6350,
      "reviews": 6351,
      "relief": 6352,
      "focused": 6353,
      "stanford": 6354,
      "shareholders": 6355,
      "satellite": 6356,
      "oce": 6357,
      "rp": 6358,
      "äü": 6359,
      "encoding": 6360,
      "gres": 6361,
      "120": 6362,
      "italy": 6363,
      "advised": 6364,
      "consul": 6365,
      "happening": 6366,
      "determined": 6367,
      "dh": 6368,
      "kh": 6369,
      "kath": 6370,
      "sz": 6371,
      "îê": 6372,
      "escapenumberaction": 6373,
      "arc": 6374,
      "stim": 6375,
      "sem": 6376,
      "losing": 6377,
      "tien": 6378,
      "ivity": 6379,
      "matic": 6380,
      "sharing": 6381,
      "guarantees": 6382,
      "continuing": 6383,
      "talked": 6384,
      "foreigner": 6385,
      "credentials": 6386,
      "afraid": 6387,
      "totally": 6388,
      "wart": 6389,
      "ãû": 6390,
      "caught": 6391,
      "oring": 6392,
      "rol": 6393,
      "canon": 6394,
      "agues": 6395,
      "oming": 6396,
      "germany": 6397,
      "contacts": 6398,
      "embed": 6399,
      "packet": 6400,
      "announcements": 6401,
      "suddenly": 6402,
      "intelligence": 6403,
      "89": 6404,
      "ipod": 6405,
      "ude": 6406,
      "remed": 6407,
      "theescapenumber": 6408,
      "ager": 6409,
      "creates": 6410,
      "avour": 6411,
      "puc": 6412,
      "handler": 6413,
      "passing": 6414,
      "radi": 6415,
      "describe": 6416,
      "perfectly": 6417,
      "campus": 6418,
      "fancy": 6419,
      "arrangements": 6420,
      "measures": 6421,
      "herself": 6422,
      "In": 6423,
      "bis": 6424,
      "dur": 6425,
      "òæ": 6426,
      "öö": 6427,
      "redi": 6428,
      "secut": 6429,
      "becomes": 6430,
      "verweg": 6431,
      "apart": 6432,
      "mycanadianpharmacy": 6433,
      "prev": 6434,
      "overnight": 6435,
      "obno": 6436,
      "presently": 6437,
      "150": 6438,
      "honest": 6439,
      "regex": 6440,
      "aj": 6441,
      "yu": 6442,
      "mble": 6443,
      "alt": 6444,
      "rocket": 6445,
      "gem": 6446,
      "estic": 6447,
      "pep": 6448,
      "upto": 6449,
      "ews": 6450,
      "filings": 6451,
      "german": 6452,
      "greatest": 6453,
      "vanguard": 6454,
      "integrated": 6455,
      "bringing": 6456,
      "xanax": 6457,
      "cluster": 6458,
      "ooking": 6459,
      "dallas": 6460,
      "lifestyle": 6461,
      "dbus": 6462,
      "eine": 6463,
      "fash": 6464,
      "jon": 6465,
      "jra": 6466,
      "nfs": 6467,
      "ration": 6468,
      "ulo": 6469,
      "alber": 6470,
      "sav": 6471,
      "quis": 6472,
      "moves": 6473,
      "cii": 6474,
      "mayor": 6475,
      "invite": 6476,
      "everyday": 6477,
      "indicate": 6478,
      "angle": 6479,
      "italian": 6480,
      "objectives": 6481,
      "swiss": 6482,
      "authorized": 6483,
      "graphic": 6484,
      "flows": 6485,
      "negotiating": 6486,
      "ked": 6487,
      "mend": 6488,
      "scar": 6489,
      "tz": 6490,
      "orter": 6491,
      "rio": 6492,
      "whit": 6493,
      "ulated": 6494,
      "diam": 6495,
      "spending": 6496,
      "pply": 6497,
      "containing": 6498,
      "printing": 6499,
      "valuation": 6500,
      "driving": 6501,
      "considering": 6502,
      "attachment": 6503,
      "merchant": 6504,
      "bund": 6505,
      "hive": 6506,
      "lun": 6507,
      "uescapenumber": 6508,
      "uli": 6509,
      "xo": 6510,
      "éì": 6511,
      "eno": 6512,
      "lips": 6513,
      "ifdef": 6514,
      "brbr": 6515,
      "produc": 6516,
      "scen": 6517,
      "fulfill": 6518,
      "surface": 6519,
      "healthcare": 6520,
      "distance": 6521,
      "specialty": 6522,
      "fixes": 6523,
      "plots": 6524,
      "calculate": 6525,
      "improvement": 6526,
      "shock": 6527,
      "propriet": 6528,
      "kl": 6529,
      "lck": 6530,
      "½": 6531,
      "ðå": 6532,
      "anger": 6533,
      "hole": 6534,
      "anymore": 6535,
      "wwescapenumber": 6536,
      "drill": 6537,
      "broch": 6538,
      "supports": 6539,
      "happiest": 6540,
      "controver": 6541,
      "daniel": 6542,
      "eastern": 6543,
      "completion": 6544,
      "resolve": 6545,
      "resolved": 6546,
      "recognized": 6547,
      "joseph": 6548,
      "aep": 6549,
      "hth": 6550,
      "nm": 6551,
      "yi": 6552,
      "ateral": 6553,
      "recall": 6554,
      "rod": 6555,
      "proxy": 6556,
      "soc": 6557,
      "exceed": 6558,
      "pear": 6559,
      "dum": 6560,
      "itech": 6561,
      "matters": 6562,
      "generating": 6563,
      "contacted": 6564,
      "headers": 6565,
      "buyer": 6566,
      "ministry": 6567,
      "spokesman": 6568,
      "subsequent": 6569,
      "meridia": 6570,
      "bby": 6571,
      "nv": 6572,
      "vance": 6573,
      "enz": 6574,
      "mee": 6575,
      "meta": 6576,
      "pros": 6577,
      "gee": 6578,
      "worse": 6579,
      "strength": 6580,
      "carter": 6581,
      "osing": 6582,
      "apped": 6583,
      "speaker": 6584,
      "requirement": 6585,
      "1933": 6586,
      "fails": 6587,
      "falls": 6588,
      "machines": 6589,
      "jaco": 6590,
      "components": 6591,
      "lunch": 6592,
      "slim": 6593,
      "yn": 6594,
      "zt": 6595,
      "escapenumberc": 6596,
      "ories": 6597,
      "rif": 6598,
      "dual": 6599,
      "workers": 6600,
      "gery": 6601,
      "smile": 6602,
      "managers": 6603,
      "famous": 6604,
      "rub": 6605,
      "namespace": 6606,
      "golden": 6607,
      "fairly": 6608,
      "politicalticker": 6609,
      "jelly": 6610,
      "nicht": 6611,
      "mozilla": 6612,
      "apache": 6613,
      "hidden": 6614,
      "ccache": 6615,
      "hous": 6616,
      "ibiblio": 6617,
      "pli": 6618,
      "qq": 6619,
      "iner": 6620,
      "atic": 6621,
      "sul": 6622,
      "allison": 6623,
      "upgrade": 6624,
      "calend": 6625,
      "gui": 6626,
      "func": 6627,
      "donald": 6628,
      "qualified": 6629,
      "ridder": 6630,
      "samr": 6631,
      "colleagues": 6632,
      "coupon": 6633,
      "hamilton": 6634,
      "duty": 6635,
      "battle": 6636,
      "dick": 6637,
      "ibility": 6638,
      "nic": 6639,
      "wine": 6640,
      "represents": 6641,
      "ela": 6642,
      "prop": 6643,
      "usdrugs": 6644,
      "sures": 6645,
      "pertain": 6646,
      "guil": 6647,
      "thanx": 6648,
      "phd": 6649,
      "affair": 6650,
      "awa": 6651,
      "drugstore": 6652,
      "vehicles": 6653,
      "inclusive": 6654,
      "testimon": 6655,
      "bie": 6656,
      "kon": 6657,
      "rough": 6658,
      "wound": 6659,
      "eness": 6660,
      "ater": 6661,
      "arms": 6662,
      "church": 6663,
      "lease": 6664,
      "adds": 6665,
      "popt": 6666,
      "dry": 6667,
      "precis": 6668,
      "helping": 6669,
      "cran": 6670,
      "fedora": 6671,
      "cheapest": 6672,
      "priced": 6673,
      "extensive": 6674,
      "troops": 6675,
      "mixed": 6676,
      "magazine": 6677,
      "oriented": 6678,
      "bd": 6679,
      "tut": 6680,
      "wing": 6681,
      "³¡": 6682,
      "çé": 6683,
      "unsub": 6684,
      "aband": 6685,
      "accus": 6686,
      "tiv": 6687,
      "parks": 6688,
      "visible": 6689,
      "relatives": 6690,
      "trades": 6691,
      "removal": 6692,
      "gentle": 6693,
      "megad": 6694,
      "cowboy": 6695,
      "53": 6696,
      "fest": 6697,
      "kay": 6698,
      "ole": 6699,
      "tcl": 6700,
      "¶¨": 6701,
      "ìá": 6702,
      "stars": 6703,
      "wei": 6704,
      "sock": 6705,
      "aggreg": 6706,
      "endors": 6707,
      "acknow": 6708,
      "corner": 6709,
      "expense": 6710,
      "jud": 6711,
      "gene": 6712,
      "cdir": 6713,
      "predictions": 6714,
      "ratio": 6715,
      "district": 6716,
      "250": 6717,
      "blast": 6718,
      "tall": 6719,
      "½²": 6720,
      "proved": 6721,
      "pocket": 6722,
      "diplo": 6723,
      "logic": 6724,
      "materi": 6725,
      "craft": 6726,
      "belief": 6727,
      "lotto": 6728,
      "clicking": 6729,
      "surround": 6730,
      "technoio": 6731,
      "marked": 6732,
      "penal": 6733,
      "digest": 6734,
      "matchlet": 6735,
      "materia": 6736,
      "granted": 6737,
      "rapidly": 6738,
      "76": 6739,
      "bach": 6740,
      "dcer": 6741,
      "jenn": 6742,
      "jona": 6743,
      "occ": 6744,
      "rcs": 6745,
      "tics": 6746,
      "ores": 6747,
      "isa": 6748,
      "isation": 6749,
      "unlimited": 6750,
      "conclu": 6751,
      "empower": 6752,
      "checks": 6753,
      "responses": 6754,
      "quicker": 6755,
      "necessity": 6756,
      "replicas": 6757,
      "leadership": 6758,
      "mouth": 6759,
      "constantly": 6760,
      "revolutionary": 6761,
      "prohibited": 6762,
      "dcerpc": 6763,
      "eco": 6764,
      "hay": 6765,
      "uc": 6766,
      "enforce": 6767,
      "anda": 6768,
      "unhappy": 6769,
      "rier": 6770,
      "convent": 6771,
      "agencies": 6772,
      "cling": 6773,
      "artists": 6774,
      "newswire": 6775,
      "werror": 6776,
      "errno": 6777,
      "heads": 6778,
      "relative": 6779,
      "pier": 6780,
      "indicating": 6781,
      "medium": 6782,
      "hopefully": 6783,
      "drawing": 6784,
      "execution": 6785,
      "bond": 6786,
      "preparing": 6787,
      "renewable": 6788,
      "entrepr": 6789,
      "reveal": 6790,
      "compatible": 6791,
      "comfortable": 6792,
      "families": 6793,
      "materially": 6794,
      "jonathan": 6795,
      "'\\\\": 6796,
      "qw": 6797,
      "yel": 6798,
      "": 6799,
      "wiil": 6800,
      "homel": 6801,
      "curi": 6802,
      "gibner": 6803,
      "shops": 6804,
      "volker": 6805,
      "christie": 6806,
      "partnerships": 6807,
      "attachments": 6808,
      "spreadsheet": 6809,
      "crowd": 6810,
      "scientist": 6811,
      "surprised": 6812,
      "deposits": 6813,
      "decrease": 6814,
      "deployment": 6815,
      "jennifer": 6816,
      "bang": 6817,
      "ians": 6818,
      "rr": 6819,
      "sli": 6820,
      "tid": 6821,
      "°²": 6822,
      "relax": 6823,
      "ented": 6824,
      "acct": 6825,
      "shr": 6826,
      "olpc": 6827,
      "correlation": 6828,
      "preser": 6829,
      "blan": 6830,
      "hibit": 6831,
      "personnel": 6832,
      "counterparty": 6833,
      "significantly": 6834,
      "affected": 6835,
      "xyplot": 6836,
      "employment": 6837,
      "replescapenumbercas": 6838,
      "temporary": 6839,
      "finger": 6840,
      "warranty": 6841,
      "capture": 6842,
      "proprietary": 6843,
      "fem": 6844,
      "hil": 6845,
      "vg": 6846,
      "vous": 6847,
      "ym": 6848,
      "reward": 6849,
      "tages": 6850,
      "ulpt": 6851,
      "gry": 6852,
      "interpret": 6853,
      "akes": 6854,
      "mistake": 6855,
      "append": 6856,
      "traverse": 6857,
      "categor": 6858,
      "born": 6859,
      "operational": 6860,
      "promote": 6861,
      "transportation": 6862,
      "damage": 6863,
      "sister": 6864,
      "79": 6865,
      "bac": 6866,
      "hits": 6867,
      "imb": 6868,
      "pge": 6869,
      "áª": 6870,
      "escapenumberi": 6871,
      "ascii": 6872,
      "bec": 6873,
      "doctors": 6874,
      "pray": 6875,
      "mos": 6876,
      "hoping": 6877,
      "scitech": 6878,
      "monte": 6879,
      "merck": 6880,
      "firms": 6881,
      "tridg": 6882,
      "astic": 6883,
      "denied": 6884,
      "cells": 6885,
      "foxnews": 6886,
      "hurt": 6887,
      "pulled": 6888,
      "settlement": 6889,
      "·": 6890,
      "bartlett": 6891,
      "grafix": 6892,
      "precisely": 6893,
      "tridgell": 6894,
      "brid": 6895,
      "gpo": 6896,
      "lst": 6897,
      "rav": 6898,
      "vot": 6899,
      "inno": 6900,
      "escapenumberxx": 6901,
      "remin": 6902,
      "stret": 6903,
      "amend": 6904,
      "dol": 6905,
      "bye": 6906,
      "grass": 6907,
      "herit": 6908,
      "flesh": 6909,
      "anni": 6910,
      "climate": 6911,
      "readytravelers": 6912,
      "grown": 6913,
      "librpc": 6914,
      "scoop": 6915,
      "domestic": 6916,
      "diligence": 6917,
      "dab": 6918,
      "hilton": 6919,
      "tun": 6920,
      "tte": 6921,
      "wk": 6922,
      "yy": 6923,
      "tha": 6924,
      "alive": 6925,
      "ingredi": 6926,
      "illegal": 6927,
      "propose": 6928,
      "nev": 6929,
      "som": 6930,
      "permit": 6931,
      "ults": 6932,
      "istan": 6933,
      "mysql": 6934,
      "visions": 6935,
      "colour": 6936,
      "binding": 6937,
      "licence": 6938,
      "goods": 6939,
      "consideration": 6940,
      "strongly": 6941,
      "likeli": 6942,
      "formats": 6943,
      "declared": 6944,
      "interviews": 6945,
      "evalu": 6946,
      "procedures": 6947,
      "likelihood": 6948,
      "hxp": 6949,
      "lavor": 6950,
      "png": 6951,
      "ancient": 6952,
      "iles": 6953,
      "anderson": 6954,
      "taint": 6955,
      "resid": 6956,
      "disclosure": 6957,
      "logging": 6958,
      "1999": 6959,
      "purchases": 6960,
      "importance": 6961,
      "dedicated": 6962,
      "smaller": 6963,
      "experienced": 6964,
      "gained": 6965,
      "fired": 6966,
      "efficiency": 6967,
      "massive": 6968,
      "automatic": 6969,
      "consequently": 6970,
      "646": 6971,
      "gul": 6972,
      "jn": 6973,
      "lum": 6974,
      "lng": 6975,
      "ying": 6976,
      "¡±": 6977,
      "êð": 6978,
      "mapping": 6979,
      "nodes": 6980,
      "geman": 6981,
      "terol": 6982,
      "interpre": 6983,
      "finish": 6984,
      "monkey": 6985,
      "classroom": 6986,
      "linked": 6987,
      "targeted": 6988,
      "naturally": 6989,
      "acquired": 6990,
      "northwest": 6991,
      "directories": 6992,
      "recommendation": 6993,
      "nomination": 6994,
      "ÿÿÿÿ": 6995,
      "subsidiary": 6996,
      "heritage": 6997,
      "lloy": 6998,
      "rho": 6999,
      "zimin": 7000,
      "allocated": 7001,
      "admit": 7002,
      "doch": 7003,
      "quer": 7004,
      "emma": 7005,
      "marc": 7006,
      "parall": 7007,
      "donna": 7008,
      "dealing": 7009,
      "perlescapenumber": 7010,
      "warn": 7011,
      "defense": 7012,
      "icians": 7013,
      "stronger": 7014,
      "fighting": 7015,
      "accident": 7016,
      "survival": 7017,
      "obnox": 7018,
      "hxpn": 7019,
      "cbind": 7020,
      "nmb": 7021,
      "swee": 7022,
      "thri": 7023,
      "rely": 7024,
      "allocation": 7025,
      "asvp": 7026,
      "ctive": 7027,
      "ician": 7028,
      "becoming": 7029,
      "sage": 7030,
      "quit": 7031,
      "hook": 7032,
      "interfaces": 7033,
      "buck": 7034,
      "parm": 7035,
      "council": 7036,
      "buyers": 7037,
      "personally": 7038,
      "hourly": 7039,
      "effectively": 7040,
      "hypo": 7041,
      "terminal": 7042,
      "argent": 7043,
      "kilo": 7044,
      "shuttle": 7045,
      "duties": 7046,
      "coordinator": 7047,
      "cultural": 7048,
      "bath": 7049,
      "ike": 7050,
      "µè": 7051,
      "army": 7052,
      "loved": 7053,
      "shore": 7054,
      "keith": 7055,
      "syl": 7056,
      "winescapenumber": 7057,
      "merger": 7058,
      "transfers": 7059,
      "harder": 7060,
      "locking": 7061,
      "careful": 7062,
      "references": 7063,
      "practices": 7064,
      "derivative": 7065,
      "promised": 7066,
      "astron": 7067,
      "aggressive": 7068,
      "010": 7069,
      "kore": 7070,
      "nap": 7071,
      "nell": 7072,
      "ystem": 7073,
      "©": 7074,
      "iser": 7075,
      "itors": 7076,
      "entity": 7077,
      "forma": 7078,
      "unreal": 7079,
      "iron": 7080,
      "brac": 7081,
      "lace": 7082,
      "somewhat": 7083,
      "dispatch": 7084,
      "everybody": 7085,
      "surv": 7086,
      "clik": 7087,
      "kinds": 7088,
      "reviewed": 7089,
      "framework": 7090,
      "terminate": 7091,
      "quiries": 7092,
      "channels": 7093,
      "platforms": 7094,
      "greetings": 7095,
      "jum": 7096,
      "kal": 7097,
      "obs": 7098,
      "rated": 7099,
      "rush": 7100,
      "caut": 7101,
      "itpick": 7102,
      "sten": 7103,
      "ector": 7104,
      "mol": 7105,
      "tire": 7106,
      "cord": 7107,
      "linda": 7108,
      "turns": 7109,
      "freebsd": 7110,
      "kenne": 7111,
      "holders": 7112,
      "professionals": 7113,
      "explore": 7114,
      "amazon": 7115,
      "losses": 7116,
      "industries": 7117,
      "collap": 7118,
      "kimber": 7119,
      "bottles": 7120,
      "construed": 7121,
      "garden": 7122,
      "narrow": 7123,
      "blocks": 7124,
      "gpg": 7125,
      "jail": 7126,
      "jason": 7127,
      "rust": 7128,
      "seas": 7129,
      "adata": 7130,
      "rig": 7131,
      "mom": 7132,
      "boat": 7133,
      "marily": 7134,
      "raises": 7135,
      "simpl": 7136,
      "brocker": 7137,
      "fruit": 7138,
      "giuli": 7139,
      "breath": 7140,
      "iciary": 7141,
      "shortly": 7142,
      "bedroom": 7143,
      "penn": 7144,
      "metadata": 7145,
      "policies": 7146,
      "worthy": 7147,
      "shooting": 7148,
      "entreprene": 7149,
      "aer": 7150,
      "pour": 7151,
      "sca": 7152,
      "anita": 7153,
      "cooperation": 7154,
      "nos": 7155,
      "socal": 7156,
      "shire": 7157,
      "avo": 7158,
      "belt": 7159,
      "juli": 7160,
      "begins": 7161,
      "petro": 7162,
      "harry": 7163,
      "targets": 7164,
      "facil": 7165,
      "acceptable": 7166,
      "normally": 7167,
      "bullet": 7168,
      "quantity": 7169,
      "jackie": 7170,
      "habits": 7171,
      "innovative": 7172,
      "ubsw": 7173,
      "inherent": 7174,
      "declaration": 7175,
      "escapenumberjdp": 7176,
      "cowboyneal": 7177,
      "fsp": 7178,
      "hans": 7179,
      "ji": 7180,
      "rita": 7181,
      "vz": 7182,
      "¡¶": 7183,
      "÷³": 7184,
      "oned": 7185,
      "replaced": 7186,
      "nee": 7187,
      "perspect": 7188,
      "artis": 7189,
      "gra": 7190,
      "newsletters": 7191,
      "steel": 7192,
      "wave": 7193,
      "gnitpick": 7194,
      "claiming": 7195,
      "ooo": 7196,
      "benefited": 7197,
      "circu": 7198,
      "integral": 7199,
      "deadline": 7200,
      "ownership": 7201,
      "lawyer": 7202,
      "backs": 7203,
      "odo": 7204,
      "sad": 7205,
      "thi": 7206,
      "oni": 7207,
      "recv": 7208,
      "refinance": 7209,
      "theor": 7210,
      "lewis": 7211,
      "ctl": 7212,
      "ongo": 7213,
      "prope": 7214,
      "uss": 7215,
      "ette": 7216,
      "marriage": 7217,
      "crew": 7218,
      "phones": 7219,
      "regions": 7220,
      "kingdom": 7221,
      "dealers": 7222,
      "softwares": 7223,
      "websites": 7224,
      "telling": 7225,
      "breakthrough": 7226,
      "scripting": 7227,
      "insight": 7228,
      "deciding": 7229,
      "????": 7230,
      "republicans": 7231,
      "mechanism": 7232,
      "delighted": 7233,
      "conferences": 7234,
      "giuliani": 7235,
      "bip": 7236,
      "sab": 7237,
      "zer": 7238,
      "¡°": 7239,
      "incorpor": 7240,
      "orbit": 7241,
      "attemp": 7242,
      "eda": 7243,
      "adel": 7244,
      "tica": 7245,
      "interval": 7246,
      "disappoint": 7247,
      "sculpt": 7248,
      "twice": 7249,
      "invitation": 7250,
      "served": 7251,
      "decisions": 7252,
      "autom": 7253,
      "burst": 7254,
      "spoken": 7255,
      "instructed": 7256,
      "partnership": 7257,
      "layer": 7258,
      "graduate": 7259,
      "african": 7260,
      "deposited": 7261,
      "accomplish": 7262,
      "volatility": 7263,
      "lloyd": 7264,
      "84": 7265,
      "bare": 7266,
      "bble": 7267,
      "ict": 7268,
      "iers": 7269,
      "kur": 7270,
      "kom": 7271,
      "slot": 7272,
      "¡·": 7273,
      "escapenumberge": 7274,
      "theast": 7275,
      "arian": 7276,
      "icial": 7277,
      "sement": 7278,
      "advo": 7279,
      "compe": 7280,
      "suits": 7281,
      "gop": 7282,
      "slack": 7283,
      "billing": 7284,
      "vacation": 7285,
      "searching": 7286,
      "personality": 7287,
      "movement": 7288,
      "remained": 7289,
      "colorado": 7290,
      "continuously": 7291,
      "depending": 7292,
      "assigned": 7293,
      "seriously": 7294,
      "lavorato": 7295,
      "fname": 7296,
      "mull": 7297,
      "ology": 7298,
      "tough": 7299,
      "escapenumbernd": 7300,
      "allocate": 7301,
      "anytime": 7302,
      "moreover": 7303,
      "openings": 7304,
      "legally": 7305,
      "sharp": 7306,
      "meantime": 7307,
      "wishes": 7308,
      "downloadable": 7309,
      "drawn": 7310,
      "southwest": 7311,
      "aneous": 7312,
      "pdt": 7313,
      "football": 7314,
      "async": 7315,
      "prestescapenumberge": 7316,
      "gnome": 7317,
      "bp": 7318,
      "µø": 7319,
      "cative": 7320,
      "theory": 7321,
      "toll": 7322,
      "unify": 7323,
      "wipo": 7324,
      "graves": 7325,
      "bras": 7326,
      "strdup": 7327,
      "eves": 7328,
      "netlogon": 7329,
      "regarded": 7330,
      "sterling": 7331,
      "treated": 7332,
      "situations": 7333,
      "lene": 7334,
      "ulties": 7335,
      "manufacturing": 7336,
      "tracking": 7337,
      "horse": 7338,
      "introduced": 7339,
      "credited": 7340,
      "observed": 7341,
      "observations": 7342,
      "lovely": 7343,
      "slightly": 7344,
      "fab": 7345,
      "fans": 7346,
      "jescapenumber": 7347,
      "oz": 7348,
      "ðô": 7349,
      "capable": 7350,
      "atches": 7351,
      "stup": 7352,
      "depress": 7353,
      "ifies": 7354,
      "aux": 7355,
      "delta": 7356,
      "aktien": 7357,
      "bled": 7358,
      "simo": 7359,
      "simulation": 7360,
      "frag": 7361,
      "archives": 7362,
      "1934": 7363,
      "drivers": 7364,
      "soul": 7365,
      "authorities": 7366,
      "vacant": 7367,
      "draws": 7368,
      "representatives": 7369,
      "omega": 7370,
      "scientists": 7371,
      "bruce": 7372,
      "cloudiness": 7373,
      "shadow": 7374,
      "fulfillment": 7375,
      "kilogram": 7376,
      "attempts": 7377,
      "jf": 7378,
      "nz": 7379,
      "nations": 7380,
      "qx": 7381,
      "vest": 7382,
      "voted": 7383,
      "íå": 7384,
      "republic": 7385,
      "seed": 7386,
      "powers": 7387,
      "tray": 7388,
      "artif": 7389,
      "bron": 7390,
      "calger": 7391,
      "boss": 7392,
      "derr": 7393,
      "producer": 7394,
      "desired": 7395,
      "overhead": 7396,
      "callback": 7397,
      "kings": 7398,
      "thru": 7399,
      "potentially": 7400,
      "professionally": 7401,
      "facing": 7402,
      "depends": 7403,
      "murphy": 7404,
      "skilling": 7405,
      "ejac": 7406,
      "dupli": 7407,
      "73": 7408,
      "iors": 7409,
      "tong": 7410,
      "tend": 7411,
      "µú": 7412,
      "camb": 7413,
      "anie": 7414,
      "lexico": 7415,
      "mey": 7416,
      "proof": 7417,
      "iry": 7418,
      "quint": 7419,
      "empres": 7420,
      "brug": 7421,
      "etter": 7422,
      "monta": 7423,
      "dyn": 7424,
      "gervas": 7425,
      "passdb": 7426,
      "accessible": 7427,
      "pathy": 7428,
      "guarant": 7429,
      "libraries": 7430,
      "publishing": 7431,
      "absolute": 7432,
      "privileged": 7433,
      "launched": 7434,
      "masters": 7435,
      "columbia": 7436,
      "solicited": 7437,
      "kimberly": 7438,
      "72": 7439,
      "86": 7440,
      "render": 7441,
      "scat": 7442,
      "îò": 7443,
      "enig": 7444,
      "thro": 7445,
      "escapenumbermarket": 7446,
      "ariz": 7447,
      "sts": 7448,
      "stderr": 7449,
      "assa": 7450,
      "chos": 7451,
      "rical": 7452,
      "shel": 7453,
      "img": 7454,
      "manip": 7455,
      "grab": 7456,
      "dra": 7457,
      "somehow": 7458,
      "sett": 7459,
      "aston": 7460,
      "regardless": 7461,
      "differences": 7462,
      "communicating": 7463,
      "kindly": 7464,
      "taxes": 7465,
      "difficulties": 7466,
      "violence": 7467,
      "extensions": 7468,
      "attributes": 7469,
      "pkg": 7470,
      "coffee": 7471,
      "quisite": 7472,
      "gervasio": 7473,
      "cig": 7474,
      "dpc": 7475,
      "hin": 7476,
      "kt": 7477,
      "wanna": 7478,
      "èõ": 7479,
      "ìâ": 7480,
      "thay": 7481,
      "roles": 7482,
      "robot": 7483,
      "chor": 7484,
      "bee": 7485,
      "consolid": 7486,
      "terry": 7487,
      "abort": 7488,
      "shaking": 7489,
      "heuer": 7490,
      "interactiv": 7491,
      "avir": 7492,
      "timely": 7493,
      "additionally": 7494,
      "speculative": 7495,
      "argc": 7496,
      "collabor": 7497,
      "murdoch": 7498,
      "computing": 7499,
      "economics": 7500,
      "scientific": 7501,
      "hunter": 7502,
      "invoice": 7503,
      "ocean": 7504,
      "91": 7505,
      "bbs": 7506,
      "cular": 7507,
      "eh": 7508,
      "tig": 7509,
      "xs": 7510,
      "ïîä": 7511,
      "øöæ": 7512,
      "inn": 7513,
      "ont": 7514,
      "anno": 7515,
      "deve": 7516,
      "unsecured": 7517,
      "olly": 7518,
      "portable": 7519,
      "drin": 7520,
      "lined": 7521,
      "infoescapenumber": 7522,
      "105": 7523,
      "transition": 7524,
      "surf": 7525,
      "copying": 7526,
      "possibilities": 7527,
      "strip": 7528,
      "krist": 7529,
      "downloaded": 7530,
      "compilers": 7531,
      "penisenlargement": 7532,
      "instantly": 7533,
      "apologize": 7534,
      "brochure": 7535,
      "kenneth": 7536,
      "cds": 7537,
      "jacks": 7538,
      "rut": 7539,
      "ouse": 7540,
      "forese": 7541,
      "nose": 7542,
      "unnecessary": 7543,
      "unsolicited": 7544,
      "liz": 7545,
      "verified": 7546,
      "brings": 7547,
      "resign": 7548,
      "boys": 7549,
      "drink": 7550,
      "iley": 7551,
      "regret": 7552,
      "lina": 7553,
      "matches": 7554,
      "powered": 7555,
      "libreplace": 7556,
      "gerald": 7557,
      "operators": 7558,
      "piescapenumber": 7559,
      "juan": 7560,
      "legend": 7561,
      "barbar": 7562,
      "reviewing": 7563,
      "mmcf": 7564,
      "graphs": 7565,
      "ohio": 7566,
      "compiled": 7567,
      "predicted": 7568,
      "sacrif": 7569,
      "erections": 7570,
      "techniques": 7571,
      "russian": 7572,
      "influence": 7573,
      "»°£": 7574,
      "nevada": 7575,
      "favour": 7576,
      "gz": 7577,
      "ltdb": 7578,
      "chop": 7579,
      "mex": 7580,
      "tering": 7581,
      "keen": 7582,
      "ulous": 7583,
      "aggres": 7584,
      "artwork": 7585,
      "ella": 7586,
      "bust": 7587,
      "scut": 7588,
      "desc": 7589,
      "takeover": 7590,
      "closely": 7591,
      "traded": 7592,
      "banker": 7593,
      "imagin": 7594,
      "nium": 7595,
      "louis": 7596,
      "float": 7597,
      "profitable": 7598,
      "implied": 7599,
      "anticipates": 7600,
      "karen": 7601,
      "frequently": 7602,
      "wrapper": 7603,
      "fascin": 7604,
      "obligation": 7605,
      "clinical": 7606,
      "aco": 7607,
      "mask": 7608,
      "nj": 7609,
      "uff": 7610,
      "escape": 7611,
      "acre": 7612,
      "creds": 7613,
      "disclosed": 7614,
      "scene": 7615,
      "spin": 7616,
      "knowing": 7617,
      "origination": 7618,
      "virtu": 7619,
      "potent": 7620,
      "alerting": 7621,
      "senator": 7622,
      "governor": 7623,
      "phoen": 7624,
      "penny": 7625,
      "antivirus": 7626,
      "rolling": 7627,
      "limits": 7628,
      "excited": 7629,
      "arrangement": 7630,
      "recruiting": 7631,
      "homeland": 7632,
      "bpl": 7633,
      "jp": 7634,
      "mers": 7635,
      "tany": 7636,
      "±¨": 7637,
      "²»": 7638,
      "edward": 7639,
      "robo": 7640,
      "mai": 7641,
      "semi": 7642,
      "undef": 7643,
      "concent": 7644,
      "hopes": 7645,
      "newly": 7646,
      "brent": 7647,
      "ghan": 7648,
      "sides": 7649,
      "mailinglist": 7650,
      "signing": 7651,
      "frames": 7652,
      "puts": 7653,
      "election": 7654,
      "understands": 7655,
      "borland": 7656,
      "foods": 7657,
      "decline": 7658,
      "464": 7659,
      "polygon": 7660,
      "substantial": 7661,
      "enabled": 7662,
      "parallel": 7663,
      "ebs": 7664,
      "iop": 7665,
      "×¼": 7666,
      "orous": 7667,
      "thed": 7668,
      "todd": 7669,
      "alent": 7670,
      "robin": 7671,
      "complain": 7672,
      "peg": 7673,
      "agents": 7674,
      "funny": 7675,
      "anny": 7676,
      "ticks": 7677,
      "silent": 7678,
      "wyoming": 7679,
      "cindy": 7680,
      "¹¤×÷": 7681,
      "mccain": 7682,
      "61": 7683,
      "cz": 7684,
      "eam": 7685,
      "gm": 7686,
      "gps": 7687,
      "scor": 7688,
      "sans": 7689,
      "éî": 7690,
      "insert": 7691,
      "escapenumberst": 7692,
      "toys": 7693,
      "roger": 7694,
      "assert": 7695,
      "undefined": 7696,
      "taco": 7697,
      "apps": 7698,
      "worst": 7699,
      "emiss": 7700,
      "resu": 7701,
      "strc": 7702,
      "avid": 7703,
      "delays": 7704,
      "pied": 7705,
      "tube": 7706,
      "addressed": 7707,
      "ballot": 7708,
      "legit": 7709,
      "sells": 7710,
      "harm": 7711,
      "feels": 7712,
      "santa": 7713,
      "precipit": 7714,
      "patented": 7715,
      "excite": 7716,
      "substitut": 7717,
      "slowly": 7718,
      "coreldraw": 7719,
      "prestig": 7720,
      "consulting": 7721,
      "gemansolutions": 7722,
      "bruggemansolutions": 7723,
      "dad": 7724,
      "jew": 7725,
      "ost": 7726,
      "pus": 7727,
      "sections": 7728,
      "unci": 7729,
      "unlike": 7730,
      "neu": 7731,
      "acer": 7732,
      "pled": 7733,
      "arton": 7734,
      "grate": 7735,
      "intuit": 7736,
      "sich": 7737,
      "netco": 7738,
      "typed": 7739,
      "carlos": 7740,
      "marketp": 7741,
      "ugs": 7742,
      "basket": 7743,
      "shipped": 7744,
      "objective": 7745,
      "petrole": 7746,
      "hanks": 7747,
      "smoke": 7748,
      "besides": 7749,
      "honor": 7750,
      "regularly": 7751,
      "conducted": 7752,
      "gtk": 7753,
      "hunger": 7754,
      "holiday": 7755,
      "wearing": 7756,
      "demonstr": 7757,
      "calendar": 7758,
      "pertaining": 7759,
      "dabhol": 7760,
      "ongoing": 7761,
      "propecia": 7762,
      "215": 7763,
      "cke": 7764,
      "pink": 7765,
      "qr": 7766,
      "vast": 7767,
      "¨": 7768,
      "çë": 7769,
      "causes": 7770,
      "anced": 7771,
      "outer": 7772,
      "elig": 7773,
      "illy": 7774,
      "asap": 7775,
      "seat": 7776,
      "pow": 7777,
      "abuse": 7778,
      "moon": 7779,
      "cked": 7780,
      "formal": 7781,
      "izer": 7782,
      "ifier": 7783,
      "certaint": 7784,
      "packing": 7785,
      "owns": 7786,
      "circul": 7787,
      "eney": 7788,
      "counterparties": 7789,
      "ladies": 7790,
      "spirits": 7791,
      "scanning": 7792,
      "wisdom": 7793,
      "thesis": 7794,
      "enhancing": 7795,
      "ación": 7796,
      "replescapenumberca": 7797,
      "pleasant": 7798,
      "conclusion": 7799,
      "perspective": 7800,
      "certainty": 7801,
      "83": 7802,
      "sf": 7803,
      "esome": 7804,
      "inspect": 7805,
      "atch": 7806,
      "algor": 7807,
      "sept": 7808,
      "comed": 7809,
      "iding": 7810,
      "wharton": 7811,
      "grace": 7812,
      "cartier": 7813,
      "trig": 7814,
      "hadley": 7815,
      "ugly": 7816,
      "patri": 7817,
      "surely": 7818,
      "closer": 7819,
      "nationa": 7820,
      "cutting": 7821,
      "holdings": 7822,
      "aham": 7823,
      "furthermore": 7824,
      "involving": 7825,
      "supervis": 7826,
      "competitors": 7827,
      "txu": 7828,
      "britain": 7829,
      "fanta": 7830,
      "monitoring": 7831,
      "cruiseca": 7832,
      "theorize": 7833,
      "jackson": 7834,
      "Talent": 7835,
      "aca": 7836,
      "gabor": 7837,
      "spa": 7838,
      "wan": 7839,
      "wkn": 7840,
      "»¯": 7841,
      "oul": 7842,
      "alo": 7843,
      "chrom": 7844,
      "rica": 7845,
      "poli": 7846,
      "poison": 7847,
      "kee": 7848,
      "explan": 7849,
      "worn": 7850,
      "myster": 7851,
      "hasn": 7852,
      "owa": 7853,
      "transwestern": 7854,
      "frustr": 7855,
      "latter": 7856,
      "breaks": 7857,
      "researchers": 7858,
      "falling": 7859,
      "percentage": 7860,
      "hillary": 7861,
      "fatal": 7862,
      "proposals": 7863,
      "recognize": 7864,
      "anticipate": 7865,
      "leaves": 7866,
      "literally": 7867,
      "affairs": 7868,
      "stupid": 7869,
      "arizona": 7870,
      "tanya": 7871,
      "petroleum": 7872,
      "If": 7873,
      "czescapenumber": 7874,
      "hart": 7875,
      "jah": 7876,
      "kle": 7877,
      "kale": 7878,
      "mone": 7879,
      "ras": 7880,
      "zoo": 7881,
      "´«": 7882,
      "incur": 7883,
      "infr": 7884,
      "escapenumbergb": 7885,
      "toy": 7886,
      "alk": 7887,
      "convey": 7888,
      "wie": 7889,
      "pron": 7890,
      "sia": 7891,
      "odd": 7892,
      "conting": 7893,
      "desper": 7894,
      "headline": 7895,
      "distin": 7896,
      "gling": 7897,
      "termination": 7898,
      "declined": 7899,
      "frances": 7900,
      "practical": 7901,
      "symmetri": 7902,
      "symbols": 7903,
      "emergency": 7904,
      "consultant": 7905,
      "carrying": 7906,
      "controller": 7907,
      "terrible": 7908,
      "explicitly": 7909,
      "logistics": 7910,
      "prestigious": 7911,
      "algorith": 7912,
      "symmetrical": 7913,
      "nit": 7914,
      "rbind": 7915,
      "tb": 7916,
      "wp": 7917,
      "³¤": 7918,
      "inject": 7919,
      "inner": 7920,
      "tox": 7921,
      "arab": 7922,
      "arbit": 7923,
      "prosecut": 7924,
      "neil": 7925,
      "exquisite": 7926,
      "ourselves": 7927,
      "antis": 7928,
      "oked": 7929,
      "finds": 7930,
      "spur": 7931,
      "colors": 7932,
      "uga": 7933,
      "litigation": 7934,
      "surgery": 7935,
      "hier": 7936,
      "tdbsa": 7937,
      "passive": 7938,
      "fonts": 7939,
      "krish": 7940,
      "fasten": 7941,
      "matching": 7942,
      "cmdr": 7943,
      "cfm": 7944,
      "paintings": 7945,
      "thorough": 7946,
      "£­£­": 7947,
      "luxury": 7948,
      "aggresive": 7949,
      "phoenix": 7950,
      "App": 7951,
      "Team": 7952,
      "bour": 7953,
      "dash": 7954,
      "fm": 7955,
      "gmt": 7956,
      "np": 7957,
      "nur": 7958,
      "nrow": 7959,
      "tfescapenumber": 7960,
      "êâ": 7961,
      "ôò": 7962,
      "inj": 7963,
      "infect": 7964,
      "ouid": 7965,
      "coeffici": 7966,
      "rie": 7967,
      "imo": 7968,
      "imper": 7969,
      "brush": 7970,
      "spaces": 7971,
      "omit": 7972,
      "stands": 7973,
      "wells": 7974,
      "latin": 7975,
      "smtp": 7976,
      "visitors": 7977,
      "increases": 7978,
      "driven": 7979,
      "possibleinfer": 7980,
      "teams": 7981,
      "ahl": 7982,
      "aimee": 7983,
      "validate": 7984,
      "soldiers": 7985,
      "japanese": 7986,
      "victim": 7987,
      "citizens": 7988,
      "guilty": 7989,
      "nmbd": 7990,
      "coefficients": 7991,
      "possibleinferiors": 7992,
      "bun": 7993,
      "bits": 7994,
      "een": 7995,
      "gad": 7996,
      "jit": 7997,
      "mile": 7998,
      "sought": 7999,
      "×¨": 8000,
      "ãæ": 8001,
      "öø": 8002,
      "inations": 8003,
      "rein": 8004,
      "albert": 8005,
      "aron": 8006,
      "asm": 8007,
      "icity": 8008,
      "seattle": 8009,
      "begun": 8010,
      "veto": 8011,
      "adas": 8012,
      "probe": 8013,
      "mobil": 8014,
      "marco": 8015,
      "okay": 8016,
      "testenv": 8017,
      "libcli": 8018,
      "slender": 8019,
      "approve": 8020,
      "pix": 8021,
      "barrel": 8022,
      "crime": 8023,
      "arrass": 8024,
      "publicly": 8025,
      "restaur": 8026,
      "necessarily": 8027,
      "schools": 8028,
      "databases": 8029,
      "345": 8030,
      "hosting": 8031,
      "evaluation": 8032,
      "baghd": 8033,
      "literacy": 8034,
      "belongs": 8035,
      "chvccurrent": 8036,
      "anxiety": 8037,
      "neighbor": 8038,
      "occup": 8039,
      "entrepreneurs": 8040,
      "hmisc": 8041,
      "lapply": 8042,
      "tasks": 8043,
      "uma": 8044,
      "¬": 8045,
      "«": 8046,
      "íâ": 8047,
      "cacy": 8048,
      "inal": 8049,
      "retri": 8050,
      "tok": 8051,
      "alum": 8052,
      "sect": 8053,
      "holy": 8054,
      "golf": 8055,
      "upgrad": 8056,
      "compaq": 8057,
      "newsnight": 8058,
      "spy": 8059,
      "izon": 8060,
      "bling": 8061,
      "engthen": 8062,
      "brook": 8063,
      "programme": 8064,
      "sentence": 8065,
      "advent": 8066,
      "originally": 8067,
      "specialize": 8068,
      "commons": 8069,
      "protected": 8070,
      "moody": 8071,
      "blind": 8072,
      "sylvan": 8073,
      "baghdad": 8074,
      "dedu": 8075,
      "vation": 8076,
      "yap": 8077,
      "¦": 8078,
      "±£": 8079,
      "envi": 8080,
      "capabilities": 8081,
      "rooms": 8082,
      "lobby": 8083,
      "noise": 8084,
      "lived": 8085,
      "liability": 8086,
      "pole": 8087,
      "sos": 8088,
      "mentary": 8089,
      "holes": 8090,
      "worm": 8091,
      "draf": 8092,
      "logger": 8093,
      "overweight": 8094,
      "slap": 8095,
      "authors": 8096,
      "queue": 8097,
      "happiness": 8098,
      "fallen": 8099,
      "referenced": 8100,
      "embarrass": 8101,
      "explorer": 8102,
      "expanding": 8103,
      "otcbb": 8104,
      "scheme": 8105,
      "iniparser": 8106,
      "obligations": 8107,
      "highlights": 8108,
      "aspects": 8109,
      "fantastic": 8110,
      "bvl": 8111,
      "dent": 8112,
      "foun": 8113,
      "iphone": 8114,
      "mwh": 8115,
      "pnis": 8116,
      "¡­": 8117,
      "¹©": 8118,
      "escapenumberimited": 8119,
      "reposit": 8120,
      "anders": 8121,
      "youth": 8122,
      "meters": 8123,
      "ational": 8124,
      "taste": 8125,
      "petr": 8126,
      "cles": 8127,
      "upticks": 8128,
      "acting": 8129,
      "butter": 8130,
      "elled": 8131,
      "buff": 8132,
      "emailescapenumber": 8133,
      "cart": 8134,
      "forever": 8135,
      "pubi": 8136,
      "currency": 8137,
      "transparent": 8138,
      "attending": 8139,
      "stockupticks": 8140,
      "weighty": 8141,
      "reliant": 8142,
      "executives": 8143,
      "population": 8144,
      "assignment": 8145,
      "params": 8146,
      "carolina": 8147,
      "incentive": 8148,
      "foresee": 8149,
      "trigger": 8150,
      "lx": 8151,
      "£¿": 8152,
      "esa": 8153,
      "capability": 8154,
      "reas": 8155,
      "cheney": 8156,
      "adap": 8157,
      "adopt": 8158,
      "idl": 8159,
      "prc": 8160,
      "romney": 8161,
      "clay": 8162,
      "grind": 8163,
      "intention": 8164,
      "layout": 8165,
      "partition": 8166,
      "contest": 8167,
      "versender": 8168,
      "cycle": 8169,
      "awk": 8170,
      "handled": 8171,
      "landing": 8172,
      "motor": 8173,
      "gari": 8174,
      "complicated": 8175,
      "tiny": 8176,
      "typically": 8177,
      "82": 8178,
      "Ac": 8179,
      "bou": 8180,
      "oxescapenumber": 8181,
      "pcs": 8182,
      "õþ": 8183,
      "deca": 8184,
      "mehr": 8185,
      "provisions": 8186,
      "limin": 8187,
      "amounts": 8188,
      "therine": 8189,
      "actor": 8190,
      "maria": 8191,
      "turb": 8192,
      "confusion": 8193,
      "underwriter": 8194,
      "supplement": 8195,
      "cubic": 8196,
      "ntvfs": 8197,
      "removing": 8198,
      "arrang": 8199,
      "volun": 8200,
      "sitting": 8201,
      "faculty": 8202,
      "euros": 8203,
      "dimens": 8204,
      "restrictions": 8205,
      "arios": 8206,
      "·½·¨": 8207,
      "seminar": 8208,
      "champion": 8209,
      "achieved": 8210,
      "israel": 8211,
      "slackware": 8212,
      "aints": 8213,
      "bau": 8214,
      "gap": 8215,
      "jord": 8216,
      "mf": 8217,
      "pf": 8218,
      "rf": 8219,
      "xon": 8220,
      "inum": 8221,
      "reme": 8222,
      "ello": 8223,
      "ira": 8224,
      "grants": 8225,
      "payout": 8226,
      "workshop": 8227,
      "counsel": 8228,
      "selftest": 8229,
      "healthier": 8230,
      "handles": 8231,
      "modeling": 8232,
      "retro": 8233,
      "travlocks": 8234,
      "argue": 8235,
      "nbc": 8236,
      "gplvescapenumber": 8237,
      "henry": 8238,
      "vasant": 8239,
      "madam": 8240,
      "enhanced": 8241,
      "vacancies": 8242,
      "residents": 8243,
      "philippe": 8244,
      "hyperlink": 8245,
      "dispute": 8246,
      "embedded": 8247,
      "tongue": 8248,
      "mystery": 8249,
      "Your": 8250,
      "bent": 8251,
      "hunk": 8252,
      "rab": 8253,
      "tl": 8254,
      "áë": 8255,
      "escapenumberg": 8256,
      "chill": 8257,
      "chase": 8258,
      "sapply": 8259,
      "anton": 8260,
      "married": 8261,
      "ultimately": 8262,
      "everywhere": 8263,
      "relatively": 8264,
      "awesome": 8265,
      "deny": 8266,
      "503": 8267,
      "mmvii": 8268,
      "template": 8269,
      "optimization": 8270,
      "restrict": 8271,
      "kelly": 8272,
      "producers": 8273,
      "quintum": 8274,
      "chosen": 8275,
      "gut": 8276,
      "ios": 8277,
      "jen": 8278,
      "lbs": 8279,
      "oa": 8280,
      "pb": 8281,
      "slip": 8282,
      "wast": 8283,
      "êý": 8284,
      "escapenumberr": 8285,
      "isin": 8286,
      "ister": 8287,
      "devi": 8288,
      "protest": 8289,
      "amd": 8290,
      "dobbs": 8291,
      "accum": 8292,
      "clone": 8293,
      "ived": 8294,
      "nach": 8295,
      "grew": 8296,
      "keyed": 8297,
      "expecting": 8298,
      "authenti": 8299,
      "bargain": 8300,
      "tremend": 8301,
      "improves": 8302,
      "dana": 8303,
      "crude": 8304,
      "dependent": 8305,
      "deceased": 8306,
      "èëô": 8307,
      "heaven": 8308,
      "coastal": 8309,
      "victory": 8310,
      "bundle": 8311,
      "megadik": 8312,
      "thrive": 8313,
      "deveiop": 8314,
      "hz": 8315,
      "mseb": 8316,
      "tn": 8317,
      "erg": 8318,
      "lox": 8319,
      "unter": 8320,
      "nether": 8321,
      "whis": 8322,
      "soph": 8323,
      "ulent": 8324,
      "prin": 8325,
      "allus": 8326,
      "notified": 8327,
      "manually": 8328,
      "bryan": 8329,
      "offline": 8330,
      "20020": 8331,
      "whats": 8332,
      "winds": 8333,
      "suppress": 8334,
      "daq": 8335,
      "played": 8336,
      "entering": 8337,
      "locked": 8338,
      "¡¢²": 8339,
      "positioned": 8340,
      "designated": 8341,
      "swing": 8342,
      "eley": 8343,
      "existence": 8344,
      "palest": 8345,
      "muscle": 8346,
      "spool": 8347,
      "ambien": 8348,
      "sequence": 8349,
      "contribution": 8350,
      "childhood": 8351,
      "evaluate": 8352,
      "bulk": 8353,
      "teaching": 8354,
      "spanish": 8355,
      "segment": 8356,
      "itzer": 8357,
      "gathered": 8358,
      "victoria": 8359,
      "acceleration": 8360,
      "alliance": 8361,
      "tiscali": 8362,
      "cmdrtaco": 8363,
      "74": 8364,
      "93": 8365,
      "cly": 8366,
      "ico": 8367,
      "mie": 8368,
      "pig": 8369,
      "rss": 8370,
      "wto": 8371,
      "yr": 8372,
      "ôâ": 8373,
      "infl": 8374,
      "reid": 8375,
      "ingu": 8376,
      "rodri": 8377,
      "coach": 8378,
      "thats": 8379,
      "arts": 8380,
      "marshall": 8381,
      "phr": 8382,
      "laid": 8383,
      "prelimin": 8384,
      "raising": 8385,
      "waters": 8386,
      "watson": 8387,
      "trimax": 8388,
      "berk": 8389,
      "directed": 8390,
      "aster": 8391,
      "headlines": 8392,
      "approaches": 8393,
      "runif": 8394,
      "pursu": 8395,
      "passes": 8396,
      "nyse": 8397,
      "harbor": 8398,
      "billy": 8399,
      "bloom": 8400,
      "promoted": 8401,
      "manuals": 8402,
      "repeat": 8403,
      "absence": 8404,
      "probability": 8405,
      "categories": 8406,
      "preliminary": 8407,
      "dj": 8408,
      "yard": 8409,
      "zard": 8410,
      "elli": 8411,
      "decor": 8412,
      "fork": 8413,
      "conversion": 8414,
      "verification": 8415,
      "esta": 8416,
      "essentially": 8417,
      "appl": 8418,
      "opposed": 8419,
      "drag": 8420,
      "afghan": 8421,
      "produces": 8422,
      "chargers": 8423,
      "schol": 8424,
      "mud": 8425,
      "payan": 8426,
      "rising": 8427,
      "structures": 8428,
      "cuts": 8429,
      "mighty": 8430,
      "weave": 8431,
      "harmon": 8432,
      "srcdir": 8433,
      "reliability": 8434,
      "fuer": 8435,
      "browse": 8436,
      "attractive": 8437,
      "bgcolor": 8438,
      "routine": 8439,
      "russia": 8440,
      "deepayan": 8441,
      "assured": 8442,
      "metrics": 8443,
      "tutor": 8444,
      "©": 8445,
      "montague": 8446,
      "oke": 8447,
      "ql": 8448,
      "tc": 8449,
      "caf": 8450,
      "remitt": 8451,
      "chok": 8452,
      "coef": 8453,
      "subr": 8454,
      "weigh": 8455,
      "impression": 8456,
      "motiv": 8457,
      "ups": 8458,
      "hero": 8459,
      "keyboard": 8460,
      "awful": 8461,
      "surve": 8462,
      "warming": 8463,
      "judg": 8464,
      "presentations": 8465,
      "bennet": 8466,
      "distingu": 8467,
      "printed": 8468,
      "continent": 8469,
      "malloc": 8470,
      "methodo": 8471,
      "burning": 8472,
      "execute": 8473,
      "tables": 8474,
      "momentum": 8475,
      "explained": 8476,
      "initiative": 8477,
      "marketplace": 8478,
      "kaletra": 8479,
      "512": 8480,
      "gross": 8481,
      "hint": 8482,
      "pul": 8483,
      "pwd": 8484,
      "tens": 8485,
      "recon": 8486,
      "aside": 8487,
      "deem": 8488,
      "defer": 8489,
      "unlikely": 8490,
      "tric": 8491,
      "quad": 8492,
      "quoted": 8493,
      "creg": 8494,
      "cheer": 8495,
      "primarily": 8496,
      "bellev": 8497,
      "schu": 8498,
      "fraction": 8499,
      "globe": 8500,
      "jane": 8501,
      "advises": 8502,
      "bottle": 8503,
      "crypto": 8504,
      "escapenumbertg": 8505,
      "toronto": 8506,
      "nasdaq": 8507,
      "anova": 8508,
      "initially": 8509,
      "arrive": 8510,
      "mozdev": 8511,
      "·": 8512,
      "constitutes": 8513,
      "lawyers": 8514,
      "yellow": 8515,
      "stretch": 8516,
      "korea": 8517,
      "enigmail": 8518,
      "scuttle": 8519,
      "bellevue": 8520,
      "dptr": 8521,
      "gie": 8522,
      "nr": 8523,
      "ncol": 8524,
      "¼¯": 8525,
      "ïè": 8526,
      "illi": 8527,
      "sees": 8528,
      "adult": 8529,
      "nod": 8530,
      "consent": 8531,
      "soo": 8532,
      "mailer": 8533,
      "pling": 8534,
      "mars": 8535,
      "ellen": 8536,
      "phallus": 8537,
      "spss": 8538,
      "zeal": 8539,
      "charlot": 8540,
      "simpli": 8541,
      "indicative": 8542,
      "drives": 8543,
      "sociability": 8544,
      "restore": 8545,
      "140": 8546,
      "faced": 8547,
      "beneficiary": 8548,
      "placing": 8549,
      "crossword": 8550,
      "attempted": 8551,
      "skype": 8552,
      "technique": 8553,
      "eliminate": 8554,
      "prosper": 8555,
      "grateful": 8556,
      "ige": 8557,
      "jk": 8558,
      "kun": 8559,
      "pse": 8560,
      "vr": 8561,
      "óå": 8562,
      "ôë": 8563,
      "escapenumberäê": 8564,
      "rome": 8565,
      "cht": 8566,
      "loans": 8567,
      "newname": 8568,
      "graham": 8569,
      "dating": 8570,
      "matthe": 8571,
      "contacting": 8572,
      "developments": 8573,
      "retailers": 8574,
      "arrested": 8575,
      "organized": 8576,
      "distributions": 8577,
      "restricted": 8578,
      "citizen": 8579,
      "massach": 8580,
      "legitimate": 8581,
      "precipitation": 8582,
      "dk": 8583,
      "dll": 8584,
      "gab": 8585,
      "gant": 8586,
      "jab": 8587,
      "rever": 8588,
      "agu": 8589,
      "outcome": 8590,
      "bodies": 8591,
      "phen": 8592,
      "assin": 8593,
      "mature": 8594,
      "cyn": 8595,
      "broke": 8596,
      "drugstores": 8597,
      "salt": 8598,
      "airs": 8599,
      "communicate": 8600,
      "spaceflight": 8601,
      "pediat": 8602,
      "palo": 8603,
      "widely": 8604,
      "girth": 8605,
      "gregory": 8606,
      "snap": 8607,
      "quantitative": 8608,
      "alexand": 8609,
      "instruction": 8610,
      "correction": 8611,
      "testimonials": 8612,
      "circuit": 8613,
      "tremendous": 8614,
      "700": 8615,
      "aes": 8616,
      "epoll": 8617,
      "gus": 8618,
      "hitch": 8619,
      "kent": 8620,
      "oe": 8621,
      "vary": 8622,
      "½¨": 8623,
      "ìå": 8624,
      "enor": 8625,
      "thoms": 8626,
      "retire": 8627,
      "ilion": 8628,
      "asis": 8629,
      "mare": 8630,
      "maill": 8631,
      "adal": 8632,
      "worried": 8633,
      "resort": 8634,
      "bother": 8635,
      "ableton": 8636,
      "phenter": 8637,
      "disassociate": 8638,
      "miner": 8639,
      "ensity": 8640,
      "sheila": 8641,
      "grammar": 8642,
      "attende": 8643,
      "redmond": 8644,
      "leslie": 8645,
      "procession": 8646,
      "applicable": 8647,
      "barack": 8648,
      "examine": 8649,
      "hardin": 8650,
      "exec": 8651,
      "elsewhere": 8652,
      "silence": 8653,
      "shirt": 8654,
      "figured": 8655,
      "institutions": 8656,
      "occurs": 8657,
      "raymond": 8658,
      "yield": 8659,
      "facilitate": 8660,
      "bvlgari": 8661,
      "volunte": 8662,
      "dwr": 8663,
      "sirs": 8664,
      "wm": 8665,
      "³": 8666,
      "±¸": 8667,
      "·¿": 8668,
      "enrich": 8669,
      "itis": 8670,
      "istribut": 8671,
      "canam": 8672,
      "vier": 8673,
      "strengthen": 8674,
      "sier": 8675,
      "lamb": 8676,
      "ody": 8677,
      "partly": 8678,
      "identical": 8679,
      "mitch": 8680,
      "stuck": 8681,
      "marketwire": 8682,
      "descapenumbero": 8683,
      "happily": 8684,
      "fraud": 8685,
      "figures": 8686,
      "legislat": 8687,
      "academic": 8688,
      "quotes": 8689,
      "criminal": 8690,
      "jesus": 8691,
      "female": 8692,
      "jordan": 8693,
      "scuttlemonkey": 8694,
      "cue": 8695,
      "ders": 8696,
      "hxescapenumber": 8697,
      "iq": 8698,
      "jin": 8699,
      "ress": 8700,
      "anjam": 8701,
      "albu": 8702,
      "asc": 8703,
      "entities": 8704,
      "loving": 8705,
      "uncertainty": 8706,
      "neck": 8707,
      "sau": 8708,
      "paulo": 8709,
      "disci": 8710,
      "ryan": 8711,
      "modification": 8712,
      "modifications": 8713,
      "sends": 8714,
      "125": 8715,
      "choosing": 8716,
      "playtime": 8717,
      "discussing": 8718,
      "hardly": 8719,
      "imaging": 8720,
      "panic": 8721,
      "lawsuit": 8722,
      "strike": 8723,
      "battery": 8724,
      "nament": 8725,
      "appreciation": 8726,
      "iraqi": 8727,
      "piease": 8728,
      "diabet": 8729,
      "separately": 8730,
      "complaints": 8731,
      "beauty": 8732,
      "åàñµ": 8733,
      "diamond": 8734,
      "infring": 8735,
      "sylvania": 8736,
      "This": 8737,
      "bids": 8738,
      "bcf": 8739,
      "fx": 8740,
      "fright": 8741,
      "gates": 8742,
      "jur": 8743,
      "kb": 8744,
      "pent": 8745,
      "tent": 8746,
      "uz": 8747,
      "wow": 8748,
      "ãà": 8749,
      "ía": 8750,
      "cara": 8751,
      "cass": 8752,
      "cairo": 8753,
      "insur": 8754,
      "rei": 8755,
      "alis": 8756,
      "poised": 8757,
      "shake": 8758,
      "keeps": 8759,
      "extr": 8760,
      "ulating": 8761,
      "dust": 8762,
      "overseas": 8763,
      "expires": 8764,
      "steal": 8765,
      "underlying": 8766,
      "dyv": 8767,
      "charity": 8768,
      "ccli": 8769,
      "101": 8770,
      "wake": 8771,
      "micr": 8772,
      "icially": 8773,
      "swap": 8774,
      "experiment": 8775,
      "temple": 8776,
      "vino": 8777,
      "steadily": 8778,
      "impli": 8779,
      "calculation": 8780,
      "ambi": 8781,
      "othy": 8782,
      "beverage": 8783,
      "reputable": 8784,
      "gathering": 8785,
      "kirk": 8786,
      "rpccli": 8787,
      "fashion": 8788,
      "interactives": 8789,
      "fascinating": 8790,
      "remittance": 8791,
      "1000": 8792,
      "417": 8793,
      "btw": 8794,
      "gorge": 8795,
      "jar": 8796,
      "lus": 8797,
      "lcd": 8798,
      "rors": 8799,
      "rang": 8800,
      "spain": 8801,
      "vard": 8802,
      "£»": 8803,
      "èú": 8804,
      "cari": 8805,
      "oro": 8806,
      "chas": 8807,
      "leu": 8808,
      "novel": 8809,
      "tape": 8810,
      "imes": 8811,
      "quisition": 8812,
      "therap": 8813,
      "strp": 8814,
      "hellish": 8815,
      "cator": 8816,
      "prem": 8817,
      "corn": 8818,
      "incident": 8819,
      "specials": 8820,
      "userescapenumber": 8821,
      "genes": 8822,
      "fsf": 8823,
      "meanwhile": 8824,
      "janet": 8825,
      "governments": 8826,
      "joboffer": 8827,
      "liked": 8828,
      "performed": 8829,
      "principle": 8830,
      "pilot": 8831,
      "crazy": 8832,
      "deserve": 8833,
      "eogi": 8834,
      "pennsylvania": 8835,
      "subrout": 8836,
      "212": 8837,
      "Re": 8838,
      "cpu": 8839,
      "cdyv": 8840,
      "ei": 8841,
      "hated": 8842,
      "jpg": 8843,
      "kauf": 8844,
      "sri": 8845,
      "ão": 8846,
      "îsoft": 8847,
      "ïú": 8848,
      "eny": 8849,
      "causing": 8850,
      "ading": 8851,
      "unto": 8852,
      "unused": 8853,
      "unusual": 8854,
      "convin": 8855,
      "exposed": 8856,
      "peer": 8857,
      "alled": 8858,
      "romual": 8859,
      "statue": 8860,
      "interaction": 8861,
      "synon": 8862,
      "whenever": 8863,
      "belden": 8864,
      "directions": 8865,
      "perldoc": 8866,
      "bines": 8867,
      "checkout": 8868,
      "teness": 8869,
      "indiana": 8870,
      "ntlm": 8871,
      "passwd": 8872,
      "balanced": 8873,
      "applies": 8874,
      "covering": 8875,
      "tario": 8876,
      "eases": 8877,
      "universal": 8878,
      "antiqu": 8879,
      "aliases": 8880,
      "implementing": 8881,
      "oxley": 8882,
      "engineer": 8883,
      "wyn": 8884,
      "satisfy": 8885,
      "negotiated": 8886,
      "clark": 8887,
      "observation": 8888,
      "coordinate": 8889,
      "surprising": 8890,
      "animal": 8891,
      "": 8892,
      "artifacts": 8893,
      "cambridge": 8894,
      "incurred": 8895,
      "¬¬": 8896,
      "micrîsoft": 8897,
      "romuald": 8898,
      "fli": 8899,
      "nurs": 8900,
      "pel": 8901,
      "rl": 8902,
      "svc": 8903,
      "²¢": 8904,
      "´¦": 8905,
      "ñé": 8906,
      "enko": 8907,
      "ennium": 8908,
      "thur": 8909,
      "inch": 8910,
      "repair": 8911,
      "chuck": 8912,
      "beg": 8913,
      "unexpected": 8914,
      "wich": 8915,
      "imus": 8916,
      "impl": 8917,
      "earned": 8918,
      "presences": 8919,
      "otic": 8920,
      "struck": 8921,
      "failing": 8922,
      "bitwise": 8923,
      "bikin": 8924,
      "nightmare": 8925,
      "loud": 8926,
      "fdl": 8927,
      "buttons": 8928,
      "liquidity": 8929,
      "fastow": 8930,
      "expertise": 8931,
      "fifty": 8932,
      "sessions": 8933,
      "diversity": 8934,
      "atlantis": 8935,
      "occasion": 8936,
      "challenges": 8937,
      "îêìâ": 8938,
      "aggregate": 8939,
      "presenceservice": 8940,
      "229": 8941,
      "St": 8942,
      "aac": 8943,
      "iowa": 8944,
      "kron": 8945,
      "latt": 8946,
      "mdescapenumber": 8947,
      "pound": 8948,
      "sj": 8949,
      "¬¬": 8950,
      "thou": 8951,
      "inbox": 8952,
      "orters": 8953,
      "ingly": 8954,
      "ofthe": 8955,
      "chev": 8956,
      "choles": 8957,
      "consci": 8958,
      "utfescapenumber": 8959,
      "aced": 8960,
      "teco": 8961,
      "divide": 8962,
      "olic": 8963,
      "intval": 8964,
      "formed": 8965,
      "mines": 8966,
      "evil": 8967,
      "ueber": 8968,
      "joke": 8969,
      "isher": 8970,
      "turbines": 8971,
      "explos": 8972,
      "bash": 8973,
      "engage": 8974,
      "clive": 8975,
      "completeness": 8976,
      "optional": 8977,
      "breit": 8978,
      "bias": 8979,
      "environments": 8980,
      "flood": 8981,
      "holly": 8982,
      "structured": 8983,
      "favorable": 8984,
      "aimed": 8985,
      "cotten": 8986,
      "sensitive": 8987,
      "swig": 8988,
      "instruments": 8989,
      "crabescapenumber": 8990,
      "accused": 8991,
      "revealed": 8992,
      "repository": 8993,
      "chokshi": 8994,
      "bone": 8995,
      "eme": 8996,
      "fits": 8997,
      "hints": 8998,
      "kk": 8999,
      "kans": 9000,
      "rj": 9001,
      "slo": 9002,
      "¼¶": 9003,
      "æú": 9004,
      "ür": 9005,
      "escapenumberff": 9006,
      "oup": 9007,
      "elim": 9008,
      "elton": 9009,
      "stun": 9010,
      "lever": 9011,
      "leak": 9012,
      "decade": 9013,
      "detested": 9014,
      "forgot": 9015,
      "mech": 9016,
      "lia": 9017,
      "shed": 9018,
      "anting": 9019,
      "submission": 9020,
      "fern": 9021,
      "eller": 9022,
      "regulation": 9023,
      "partial": 9024,
      "cryst": 9025,
      "container": 9026,
      "redistribut": 9027,
      "pursue": 9028,
      "bene": 9029,
      "bbb": 9030,
      "yeah": 9031,
      "acquis": 9032,
      "adequ": 9033,
      "engineers": 9034,
      "negotiate": 9035,
      "carol": 9036,
      "contrast": 9037,
      "wescapenumbertch": 9038,
      "automated": 9039,
      "vinoble": 9040,
      "strptime": 9041,
      "gies": 9042,
      "hung": 9043,
      "ota": 9044,
      "pum": 9045,
      "tender": 9046,
      "uh": 9047,
      "vine": 9048,
      "engin": 9049,
      "ede": 9050,
      "seman": 9051,
      "vectors": 9052,
      "riet": 9053,
      "constra": 9054,
      "aciones": 9055,
      "shan": 9056,
      "subsystem": 9057,
      "disappeared": 9058,
      "mini": 9059,
      "iana": 9060,
      "subjects": 9061,
      "identification": 9062,
      "watched": 9063,
      "realm": 9064,
      "queen": 9065,
      "dennis": 9066,
      "treasure": 9067,
      "lange": 9068,
      "connections": 9069,
      "dirty": 9070,
      "couid": 9071,
      "fitness": 9072,
      "representation": 9073,
      "egm": 9074,
      "enjoyed": 9075,
      "telepathy": 9076,
      "greek": 9077,
      "blogspot": 9078,
      "gamma": 9079,
      "nichol": 9080,
      "craig": 9081,
      "impressed": 9082,
      "conservative": 9083,
      "ruling": 9084,
      "interpretation": 9085,
      "assault": 9086,
      "¦¦": 9087,
      "maillist": 9088,
      "gorgeous": 9089,
      "ipr": 9090,
      "ots": 9091,
      "pate": 9092,
      "vital": 9093,
      "£¡": 9094,
      "£®": 9095,
      "ðí": 9096,
      "encounter": 9097,
      "ontario": 9098,
      "thele": 9099,
      "stations": 9100,
      "bea": 9101,
      "cex": 9102,
      "aming": 9103,
      "sobre": 9104,
      "plc": 9105,
      "emph": 9106,
      "diese": 9107,
      "diverse": 9108,
      "calc": 9109,
      "sizes": 9110,
      "bure": 9111,
      "ivo": 9112,
      "ousness": 9113,
      "mono": 9114,
      "lls": 9115,
      "invited": 9116,
      "centry": 9117,
      "escapenumberdcnn": 9118,
      "schwart": 9119,
      "relate": 9120,
      "memberservices": 9121,
      "pointing": 9122,
      "loads": 9123,
      "harsh": 9124,
      "escapenumberfsource": 9125,
      "escapenumberfcnn": 9126,
      "escapenumberfmember": 9127,
      "downloads": 9128,
      "flower": 9129,
      "advertisements": 9130,
      "replacement": 9131,
      "plains": 9132,
      "aspx": 9133,
      "performing": 9134,
      "inciu": 9135,
      "pinn": 9136,
      "walked": 9137,
      "enhancement": 9138,
      "prospects": 9139,
      "kathy": 9140,
      "drilling": 9141,
      "curious": 9142,
      "gulf": 9143,
      "adelph": 9144,
      "barbara": 9145,
      "resuits": 9146,
      "arbitr": 9147,
      "Acquisition": 9148,
      "bikini": 9149,
      "lattice": 9150,
      "engines": 9151,
      "110": 9152,
      "dsize": 9153,
      "mck": 9154,
      "àû": 9155,
      "enet": 9156,
      "thres": 9157,
      "iny": 9158,
      "oniy": 9159,
      "reaction": 9160,
      "alley": 9161,
      "eland": 9162,
      "composite": 9163,
      "props": 9164,
      "gear": 9165,
      "upstream": 9166,
      "dated": 9167,
      "sons": 9168,
      "confused": 9169,
      "warned": 9170,
      "cescapenumberc": 9171,
      "airport": 9172,
      "glm": 9173,
      "hub": 9174,
      "electrical": 9175,
      "macro": 9176,
      "refused": 9177,
      "authorization": 9178,
      "hotline": 9179,
      "reliance": 9180,
      "screens": 9181,
      "quarters": 9182,
      "aaa": 9183,
      "luckily": 9184,
      "assumed": 9185,
      "reflects": 9186,
      "assessment": 9187,
      "alleged": 9188,
      "argentina": 9189,
      "astronaut": 9190,
      "netherlands": 9191,
      "thomson": 9192,
      "fis": 9193,
      "nds": 9194,
      "uel": 9195,
      "vic": 9196,
      "¸÷": 9197,
      "ìì": 9198,
      "remark": 9199,
      "allo": 9200,
      "ardi": 9201,
      "elve": 9202,
      "elet": 9203,
      "lected": 9204,
      "copied": 9205,
      "deput": 9206,
      "unpreced": 9207,
      "rik": 9208,
      "suse": 9209,
      "verge": 9210,
      "pobj": 9211,
      "wik": 9212,
      "keine": 9213,
      "tea": 9214,
      "hew": 9215,
      "gos": 9216,
      "bris": 9217,
      "sial": 9218,
      "buthele": 9219,
      "chester": 9220,
      "presto": 9221,
      "centers": 9222,
      "greed": 9223,
      "programmer": 9224,
      "headed": 9225,
      "essional": 9226,
      "meets": 9227,
      "distributor": 9228,
      "wilson": 9229,
      "weights": 9230,
      "combat": 9231,
      "gateway": 9232,
      "guidance": 9233,
      "journey": 9234,
      "shutdown": 9235,
      "increasingly": 9236,
      "navigation": 9237,
      "vibration": 9238,
      "technoiogy": 9239,
      "enforcement": 9240,
      "emissions": 9241,
      "kansas": 9242,
      "schwartz": 9243,
      "adelphia": 9244,
      "unprecedented": 9245,
      "buthelezi": 9246,
      "til": 9247,
      "": 9248,
      "¨": 9249,
      "àà": 9250,
      "âê": 9251,
      "äé": 9252,
      "tho": 9253,
      "thia": 9254,
      "intr": 9255,
      "orn": 9256,
      "eder": 9257,
      "elist": 9258,
      "stescapenumber": 9259,
      "meal": 9260,
      "bean": 9261,
      "useless": 9262,
      "whites": 9263,
      "doors": 9264,
      "exhibit": 9265,
      "bry": 9266,
      "subkeys": 9267,
      "sometime": 9268,
      "mik": 9269,
      "indicates": 9270,
      "choices": 9271,
      "viruses": 9272,
      "bandwidth": 9273,
      "281": 9274,
      "advantages": 9275,
      "egg": 9276,
      "smoking": 9277,
      "pipes": 9278,
      "correspondent": 9279,
      "maintainer": 9280,
      "blair": 9281,
      "cotton": 9282,
      "charts": 9283,
      "cjb": 9284,
      "alberto": 9285,
      "muller": 9286,
      "avirenz": 9287,
      "81": 9288,
      "egy": 9289,
      "hunt": 9290,
      "hedge": 9291,
      "kol": 9292,
      "lage": 9293,
      "oy": 9294,
      "pugs": 9295,
      "tg": 9296,
      "tone": 9297,
      "vick": 9298,
      "xter": 9299,
      "ºã": 9300,
      "éñ": 9301,
      "mbie": 9302,
      "angry": 9303,
      "rees": 9304,
      "rebec": 9305,
      "alco": 9306,
      "elite": 9307,
      "ente": 9308,
      "mexi": 9309,
      "compr": 9310,
      "proje": 9311,
      "weil": 9312,
      "abstr": 9313,
      "shouid": 9314,
      "sail": 9315,
      "outs": 9316,
      "worl": 9317,
      "evol": 9318,
      "parliam": 9319,
      "rail": 9320,
      "ipc": 9321,
      "twelve": 9322,
      "deleg": 9323,
      "linking": 9324,
      "pride": 9325,
      "requiring": 9326,
      "carried": 9327,
      "cyber": 9328,
      "gins": 9329,
      "piper": 9330,
      "packard": 9331,
      "persons": 9332,
      "arrest": 9333,
      "memdup": 9334,
      "escapenumberfvz": 9335,
      "hosts": 9336,
      "horn": 9337,
      "enjoying": 9338,
      "philadelphia": 9339,
      "crossing": 9340,
      "investorplace": 9341,
      "arrived": 9342,
      "aoescapenumberfvz": 9343,
      "datasets": 9344,
      "endorsed": 9345,
      "beliefs": 9346,
      "tiger": 9347,
      "unciation": 9348,
      "spoolss": 9349,
      "matthew": 9350,
      "acquisitions": 9351,
      "aic": 9352,
      "bvy": 9353,
      "cpp": 9354,
      "dpr": 9355,
      "­": 9356,
      "ãå": 9357,
      "òé": 9358,
      "enger": 9359,
[...]
